{
  "version": "1.0",
  "truncation": null,
  "padding": null,
  "added_tokens": [
    {
      "id": 0,
      "content": "[UNK]",
      "single_word": false,
      "lstrip": false,
      "rstrip": false,
      "normalized": false,
      "special": true
    },
    {
      "id": 1,
      "content": "[PAD]",
      "single_word": false,
      "lstrip": false,
      "rstrip": false,
      "normalized": false,
      "special": true
    },
    {
      "id": 2,
      "content": "[CLS]",
      "single_word": false,
      "lstrip": false,
      "rstrip": false,
      "normalized": false,
      "special": true
    },
    {
      "id": 3,
      "content": "[SEP]",
      "single_word": false,
      "lstrip": false,
      "rstrip": false,
      "normalized": false,
      "special": true
    },
    {
      "id": 4,
      "content": "[MASK]",
      "single_word": false,
      "lstrip": false,
      "rstrip": false,
      "normalized": false,
      "special": true
    }
  ],
  "normalizer": null,
  "pre_tokenizer": {
    "type": "Whitespace"
  },
  "post_processor": null,
  "decoder": null,
  "model": {
    "type": "BPE",
    "dropout": null,
    "unk_token": "[UNK]",
    "continuing_subword_prefix": null,
    "end_of_word_suffix": null,
    "fuse_unk": false,
    "byte_fallback": false,
    "ignore_merges": false,
    "vocab": {
      "[UNK]": 0,
      "[PAD]": 1,
      "[CLS]": 2,
      "[SEP]": 3,
      "[MASK]": 4,
      "!": 5,
      "\"": 6,
      "%": 7,
      "&": 8,
      "'": 9,
      "(": 10,
      ")": 11,
      "+": 12,
      ",": 13,
      "-": 14,
      ".": 15,
      "/": 16,
      "0": 17,
      "1": 18,
      "2": 19,
      "3": 20,
      "4": 21,
      "5": 22,
      "6": 23,
      "7": 24,
      "8": 25,
      "9": 26,
      ":": 27,
      ";": 28,
      "<": 29,
      "=": 30,
      ">": 31,
      "?": 32,
      "A": 33,
      "B": 34,
      "C": 35,
      "D": 36,
      "E": 37,
      "F": 38,
      "G": 39,
      "H": 40,
      "I": 41,
      "J": 42,
      "K": 43,
      "L": 44,
      "M": 45,
      "N": 46,
      "O": 47,
      "P": 48,
      "Q": 49,
      "R": 50,
      "S": 51,
      "T": 52,
      "U": 53,
      "V": 54,
      "W": 55,
      "X": 56,
      "Y": 57,
      "Z": 58,
      "[": 59,
      "]": 60,
      "_": 61,
      "a": 62,
      "b": 63,
      "c": 64,
      "d": 65,
      "e": 66,
      "f": 67,
      "g": 68,
      "h": 69,
      "i": 70,
      "k": 71,
      "l": 72,
      "m": 73,
      "n": 74,
      "o": 75,
      "p": 76,
      "q": 77,
      "r": 78,
      "s": 79,
      "t": 80,
      "u": 81,
      "v": 82,
      "w": 83,
      "x": 84,
      "y": 85,
      "z": 86,
      "°": 87,
      "È": 88,
      "É": 89,
      "à": 90,
      "è": 91,
      "é": 92,
      "ì": 93,
      "ò": 94,
      "ù": 95,
      "ί": 96,
      "α": 97,
      "ε": 98,
      "θ": 99,
      "λ": 100,
      "ρ": 101,
      "υ": 102,
      "ἐ": 103,
      "–": 104,
      "‘": 105,
      "’": 106,
      "“": 107,
      "”": 108,
      "„": 109,
      "‟": 110,
      "•": 111,
      "…": 112,
      "..": 113,
      "on": 114,
      "....": 115,
      "en": 116,
      "di": 117,
      "er": 118,
      "to": 119,
      "ti": 120,
      "ta": 121,
      "re": 122,
      "........": 123,
      "ri": 124,
      "la": 125,
      "de": 126,
      "al": 127,
      "si": 128,
      "in": 129,
      "te": 130,
      "an": 131,
      "zi": 132,
      "co": 133,
      "le": 134,
      "li": 135,
      "ra": 136,
      "un": 137,
      "zion": 138,
      "del": 139,
      "men": 140,
      "po": 141,
      "ca": 142,
      "es": 143,
      "ch": 144,
      "ci": 145,
      "il": 146,
      "se": 147,
      "................": 148,
      "mi": 149,
      "ro": 150,
      "per": 151,
      "con": 152,
      "che": 153,
      "ar": 154,
      "do": 155,
      "mo": 156,
      "zione": 157,
      "tu": 158,
      "lo": 159,
      "no": 160,
      "qu": 161,
      "ona": 162,
      "so": 163,
      "vi": 164,
      "ma": 165,
      "da": 166,
      "gi": 167,
      "cr": 168,
      "va": 169,
      "crona": 170,
      "ria": 171,
      "microna": 172,
      "tti": 173,
      "bb": 174,
      "or": 175,
      "umen": 176,
      "pi": 177,
      "tta": 178,
      "ale": 179,
      "me": 180,
      "su": 181,
      "della": 182,
      "sta": 183,
      "el": 184,
      "pro": 185,
      "za": 186,
      "vo": 187,
      "ver": 188,
      "pu": 189,
      "Lumen": 190,
      "ter": 191,
      "tto": 192,
      "gli": 193,
      "onen": 194,
      "aria": 195,
      "ente": 196,
      "ato": 197,
      "ono": 198,
      "is": 199,
      "mente": 200,
      "una": 201,
      "fi": 202,
      "pre": 203,
      "ce": 204,
      "ni": 205,
      "tà": 206,
      "tra": 207,
      "bbli": 208,
      "cu": 209,
      "Lumenaria": 210,
      "pubbli": 211,
      "ia": 212,
      "................................": 213,
      "sa": 214,
      "ere": 215,
      "Re": 216,
      "zioni": 217,
      "non": 218,
      "Repubbli": 219,
      "ano": 220,
      "Le": 221,
      "sid": 222,
      "ssi": 223,
      "ve": 224,
      "micronazione": 225,
      "leonen": 226,
      "com": 227,
      "Repubblica": 228,
      "pri": 229,
      "one": 230,
      "du": 231,
      "go": 232,
      "Il": 233,
      "ali": 234,
      "sen": 235,
      "pa": 236,
      "na": 237,
      "ttadi": 238,
      "tro": 239,
      "ques": 240,
      "ne": 241,
      "par": 242,
      "dal": 243,
      "bi": 244,
      "cittadi": 245,
      "gu": 246,
      "come": 247,
      "La": 248,
      "ten": 249,
      "ggi": 250,
      "io": 251,
      "sti": 252,
      "ven": 253,
      "fa": 254,
      "tico": 255,
      "min": 256,
      "Pre": 257,
      "20": 258,
      "sto": 259,
      "sidente": 260,
      "uo": 261,
      "nel": 262,
      "etti": 263,
      "era": 264,
      "lan": 265,
      "fin": 266,
      "ppo": 267,
      "for": 268,
      "più": 269,
      "Sen": 270,
      "Senato": 271,
      "leonense": 272,
      "fu": 273,
      "Presidente": 274,
      "uni": 275,
      "ran": 276,
      "lu": 277,
      "dei": 278,
      "tura": 279,
      "Gi": 280,
      "dia": 281,
      "ces": 282,
      "oni": 283,
      "Ar": 284,
      "ste": 285,
      "ero": 286,
      "mento": 287,
      "ele": 288,
      "verno": 289,
      "tre": 290,
      "micronazioni": 291,
      "alla": 292,
      "sc": 293,
      "glio": 294,
      "mb": 295,
      "tato": 296,
      "……": 297,
      "ad": 298,
      "Zan": 299,
      "poli": 300,
      "cul": 301,
      "202": 302,
      "atti": 303,
      "ac": 304,
      "gra": 305,
      "man": 306,
      "dis": 307,
      "por": 308,
      "ha": 309,
      "nuo": 310,
      "onia": 311,
      "ap": 312,
      "chi": 313,
      "Co": 314,
      "sci": 315,
      "tr": 316,
      "dell": 317,
      "stitu": 318,
      "Zanetti": 319,
      "fon": 320,
      "sono": 321,
      "suo": 322,
      "cittadini": 323,
      "are": 324,
      "Con": 325,
      "Qu": 326,
      "ed": 327,
      "ando": 328,
      "sso": 329,
      "sia": 330,
      "av": 331,
      "im": 332,
      "tte": 333,
      "rio": 334,
      "sul": 335,
      "cor": 336,
      "aren": 337,
      "zza": 338,
      "tica": 339,
      "vol": 340,
      "delle": 341,
      "ess": 342,
      "ge": 343,
      "enti": 344,
      "tan": 345,
      "questo": 346,
      "ticolo": 347,
      "quel": 348,
      "inter": 349,
      "tur": 350,
      "parte": 351,
      "micronazion": 352,
      "ul": 353,
      "cre": 354,
      "forma": 355,
      "dato": 356,
      "lando": 357,
      "enza": 358,
      "Ca": 359,
      "Or": 360,
      "ene": 361,
      "leonensi": 362,
      "governo": 363,
      "tri": 364,
      "ffi": 365,
      "leg": 366,
      "cono": 367,
      "isti": 368,
      "segu": 369,
      "In": 370,
      "attivi": 371,
      "uto": 372,
      "tare": 373,
      "anza": 374,
      "dopo": 375,
      "stato": 376,
      "cui": 377,
      "Orlando": 378,
      "sse": 379,
      "presen": 380,
      "sp": 381,
      "ani": 382,
      "ché": 383,
      "Fi": 384,
      "zia": 385,
      "Articolo": 386,
      "fer": 387,
      "endo": 388,
      "gior": 389,
      "Leonia": 390,
      "attività": 391,
      "mpi": 392,
      "col": 393,
      "II": 394,
      "mon": 395,
      "…]": 396,
      "all": 397,
      "lippo": 398,
      "essere": 399,
      "Filippo": 400,
      "tutti": 401,
      "[…]": 402,
      "bo": 403,
      "ini": 404,
      "anno": 405,
      "uno": 406,
      "fica": 407,
      "due": 408,
      "cultur": 409,
      "Ques": 410,
      "ide": 411,
      "dano": 412,
      "ito": 413,
      "tter": 414,
      "ino": 415,
      "cia": 416,
      "indi": 417,
      "Per": 418,
      "ssa": 419,
      "str": 420,
      "sem": 421,
      "Leonen": 422,
      "nella": 423,
      "Gior": 424,
      "stra": 425,
      "comuni": 426,
      "ggio": 427,
      "Arca": 428,
      "ffici": 429,
      "um": 430,
      "vil": 431,
      "onato": 432,
      "sua": 433,
      "Giordano": 434,
      "deci": 435,
      "anche": 436,
      "dello": 437,
      "ese": 438,
      "vato": 439,
      "comp": 440,
      "Go": 441,
      "azione": 442,
      "cla": 443,
      "can": 444,
      "pen": 445,
      "rico": 446,
      "prima": 447,
      "minis": 448,
      "Consi": 449,
      "vilu": 450,
      "ren": 451,
      "…………": 452,
      "Arcadia": 453,
      "An": 454,
      "cra": 455,
      "almente": 456,
      "sione": 457,
      "anti": 458,
      "vamente": 459,
      "propri": 460,
      "abb": 461,
      "dere": 462,
      "gni": 463,
      "ze": 464,
      "stata": 465,
      "senato": 466,
      "questa": 467,
      "fini": 468,
      "ss": 469,
      "zionale": 470,
      "pers": 471,
      "perio": 472,
      "stan": 473,
      "Lumenaren": 474,
      "fonda": 475,
      "Leonense": 476,
      "at": 477,
      "fre": 478,
      "dire": 479,
      "costitu": 480,
      "via": 481,
      "bile": 482,
      "Consiglio": 483,
      "Donato": 484,
      "cer": 485,
      "nanza": 486,
      "mol": 487,
      "Governo": 488,
      "Mi": 489,
      "der": 490,
      "rono": 491,
      "possi": 492,
      "onidia": 493,
      "ga": 494,
      "lumen": 495,
      "mar": 496,
      "svilu": 497,
      "entro": 498,
      "tudi": 499,
      "ismo": 500,
      "ave": 501,
      "elan": 502,
      "mpo": 503,
      "logi": 504,
      "Leonidia": 505,
      "ut": 506,
      "...": 507,
      "rev": 508,
      "esta": 509,
      "quale": 510,
      "suc": 511,
      "bili": 512,
      "cittadinanza": 513,
      "fine": 514,
      "culturale": 515,
      "Stato": 516,
      "fr": 517,
      "mbi": 518,
      "siste": 519,
      "zarev": 520,
      "dalla": 521,
      "Lazarev": 522,
      "clu": 523,
      "gna": 524,
      "uti": 525,
      "secon": 526,
      "alle": 527,
      "poi": 528,
      "chia": 529,
      "miglio": 530,
      "mai": 531,
      "bbe": 532,
      "pito": 533,
      "cittadino": 534,
      "venne": 535,
      "Giu": 536,
      "elezioni": 537,
      "cultura": 538,
      "classi": 539,
      "RF": 540,
      "Vi": 541,
      "ho": 542,
      "hanno": 543,
      "ologi": 544,
      "”,": 545,
      "lare": 546,
      "tempo": 547,
      "anni": 548,
      "appro": 549,
      "cen": 550,
      "tive": 551,
      "rea": 552,
      "zio": 553,
      "missi": 554,
      "mocra": 555,
      "que": 556,
      "pia": 557,
      "comunità": 558,
      "periodo": 559,
      "lumenaren": 560,
      "as": 561,
      "rag": 562,
      "menti": 563,
      "giu": 564,
      "vere": 565,
      "termin": 566,
      "istitu": 567,
      "RFL": 568,
      "De": 569,
      "Se": 570,
      "Sal": 571,
      "bu": 572,
      "cri": 573,
      "ruo": 574,
      "diri": 575,
      "tito": 576,
      "rito": 577,
      "lio": 578,
      "propo": 579,
      "................................................................": 580,
      "storia": 581,
      "politica": 582,
      "nuovo": 583,
      "mondo": 584,
      "aveva": 585,
      "esi": 586,
      "gno": 587,
      "gran": 588,
      "oper": 589,
      "pli": 590,
      "sco": 591,
      "zo": 592,
      "tale": 593,
      "meno": 594,
      "esso": 595,
      "però": 596,
      "ello": 597,
      "Di": 598,
      "Mar": 599,
      "dente": 600,
      "sce": 601,
      "tiva": 602,
      "alc": 603,
      "car": 604,
      "tutto": 605,
      "può": 606,
      "fidu": 607,
      "stesso": 608,
      "Costitu": 609,
      "Centro": 610,
      "gen": 611,
      "tivo": 612,
      "ine": 613,
      "arlo": 614,
      "2023": 615,
      "corso": 616,
      "ideologi": 617,
      "sempre": 618,
      "Al": 619,
      "Min": 620,
      "even": 621,
      "ov": 622,
      "sì": 623,
      "diver": 624,
      "rica": 625,
      "org": 626,
      "cessi": 627,
      "eletto": 628,
      "mbre": 629,
      "vatore": 630,
      "And": 631,
      "Salvatore": 632,
      "ai": 633,
      "tten": 634,
      "tali": 635,
      "ris": 636,
      "defini": 637,
      "soci": 638,
      "vero": 639,
      "nei": 640,
      "cesso": 641,
      "legge": 642,
      "Minis": 643,
      "Andrea": 644,
      "ges": 645,
      "ogni": 646,
      "pra": 647,
      "pun": 648,
      "dif": 649,
      "eri": 650,
      "erale": 651,
      "essa": 652,
      "peri": 653,
      "loro": 654,
      "fatti": 655,
      "ppor": 656,
      "politi": 657,
      "seguito": 658,
      "presenta": 659,
      "Sp": 660,
      "Studi": 661,
      "fra": 662,
      "ltre": 663,
      "mma": 664,
      "pp": 665,
      "rato": 666,
      "........................": 667,
      "mia": 668,
      "conce": 669,
      "consid": 670,
      "vita": 671,
      "viene": 672,
      "prop": 673,
      "senza": 674,
      "Gian": 675,
      "mpio": 676,
      "stante": 677,
      "fron": 678,
      "fiducia": 679,
      ".”": 680,
      "Ces": 681,
      "Tu": 682,
      "oc": 683,
      "entra": 684,
      "ricono": 685,
      "essi": 686,
      "ttavia": 687,
      "dall": 688,
      "furono": 689,
      "2022": 690,
      "senatori": 691,
      "Non": 692,
      "Val": 693,
      "ba": 694,
      "ko": 695,
      "rko": 696,
      "uffici": 697,
      "tamente": 698,
      "qual": 699,
      "territo": 700,
      "Casta": 701,
      "giorni": 702,
      "Questo": 703,
      "Mirko": 704,
      "sistema": 705,
      "organi": 706,
      "Cesare": 707,
      "Carlo": 708,
      "Fran": 709,
      "denti": 710,
      "fe": 711,
      "ru": 712,
      "vano": 713,
      "erano": 714,
      "erio": 715,
      "degli": 716,
      "altre": 717,
      "cora": 718,
      "unque": 719,
      "vari": 720,
      "tere": 721,
      "cesco": 722,
      "scri": 723,
      "portan": 724,
      "suoi": 725,
      "volta": 726,
      "micronazionale": 727,
      "ulti": 728,
      "decise": 729,
      "esempio": 730,
      "molto": 731,
      "pitolo": 732,
      "termine": 733,
      "Francesco": 734,
      "Arag": 735,
      "Ma": 736,
      "Sim": 737,
      "num": 738,
      "sero": 739,
      "nomin": 740,
      "quando": 741,
      "prece": 742,
      "tratta": 743,
      "gover": 744,
      "questi": 745,
      "parti": 746,
      "sulla": 747,
      "Lumenarensi": 748,
      "ruolo": 749,
      "Valerio": 750,
      "),": 751,
      "Da": 752,
      "Fed": 753,
      "Sco": 754,
      "otten": 755,
      "ppa": 756,
      "rtu": 757,
      "st": 758,
      "val": 759,
      "riu": 760,
      "ina": 761,
      "and": 762,
      "lib": 763,
      "cadi": 764,
      "modello": 765,
      "virtu": 766,
      "mandato": 767,
      "dismo": 768,
      "micronazional": 769,
      "strut": 770,
      "Costituzione": 771,
      "gesti": 772,
      "propria": 773,
      "So": 774,
      "ami": 775,
      "lun": 776,
      "rebbe": 777,
      "democra": 778,
      "into": 779,
      "inte": 780,
      "cato": 781,
      "modi": 782,
      "nome": 783,
      "fatto": 784,
      "portato": 785,
      "interno": 786,
      "parteci": 787,
      "spe": 788,
      "boro": 789,
      "Giulio": 790,
      "Simone": 791,
      "numero": 792,
      "Ci": 793,
      "ben": 794,
      "fo": 795,
      "gg": 796,
      "opo": 797,
      "pren": 798,
      "perché": 799,
      "vide": 800,
      "onostante": 801,
      "fino": 802,
      "fondato": 803,
      "importan": 804,
      "tanto": 805,
      "quella": 806,
      "Capitolo": 807,
      "comple": 808,
      "gnamiglio": 809,
      "diritto": 810,
      "Castaboro": 811,
      "Scognamiglio": 812,
      ").": 813,
      "Fre": 814,
      "Lu": 815,
      "Pd": 816,
      "auto": 817,
      "gru": 818,
      "ser": 819,
      "diven": 820,
      "inten": 821,
      "ancora": 822,
      "rap": 823,
      "esperi": 824,
      "dov": 825,
      "solo": 826,
      "vole": 827,
      "presidente": 828,
      "guar": 829,
      "fare": 830,
      "politico": 831,
      "acca": 832,
      "scita": 833,
      "candi": 834,
      "proprie": 835,
      "person": 836,
      "Federale": 837,
      "Freelan": 838,
      "Ri": 839,
      "Ru": 840,
      "amo": 841,
      "ugu": 842,
      "altà": 843,
      "cosa": 844,
      "legi": 845,
      "ciò": 846,
      "perto": 847,
      "tutte": 848,
      "sola": 849,
      "dai": 850,
      "vare": 851,
      "primo": 852,
      "ggiun": 853,
      "stessa": 854,
      "scel": 855,
      "discu": 856,
      "sempli": 857,
      "……………………": 858,
      "Lumenarense": 859,
      "evento": 860,
      "Tuttavia": 861,
      "Rub": 862,
      "11": 863,
      "Cul": 864,
      "IP": 865,
      "To": 866,
      "Vo": 867,
      "af": 868,
      "mu": 869,
      "nci": 870,
      "pe": 871,
      "”.": 872,
      "inse": 873,
      "così": 874,
      "rappor": 875,
      "popo": 876,
      "arcadi": 877,
      "partico": 878,
      "2024": 879,
      "ministro": 880,
      "freelan": 881,
      "secondo": 882,
      "lumenarense": 883,
      "14": 884,
      "Zacca": 885,
      "am": 886,
      "eme": 887,
      "ire": 888,
      "sar": 889,
      "zze": 890,
      "dimissi": 891,
      "realtà": 892,
      "infatti": 893,
      "anto": 894,
      "ttore": 895,
      "iamo": 896,
      "neces": 897,
      "ggior": 898,
      "scio": 899,
      "quello": 900,
      "clusi": 901,
      "grande": 902,
      "differ": 903,
      "struttura": 904,
      "Zaccaria": 905,
      "10": 906,
      "Mo": 907,
      "Pri": 908,
      "Si": 909,
      "apri": 910,
      "bia": 911,
      "iva": 912,
      "ori": 913,
      "oggi": 914,
      "svol": 915,
      "sfiducia": 916,
      "eno": 917,
      "dice": 918,
      "risul": 919,
      "liv": 920,
      "une": 921,
      "conti": 922,
      "modo": 923,
      "maggio": 924,
      "già": 925,
      "verso": 926,
      "duzione": 927,
      "lui": 928,
      "Come": 929,
      "micronazionali": 930,
      "giorno": 931,
      "proprio": 932,
      "abband": 933,
      "sviluppa": 934,
      "successi": 935,
      "seconda": 936,
      "ovvero": 937,
      "punto": 938,
      "Rubino": 939,
      "At": 940,
      "Gio": 941,
      "[...": 942,
      "ari": 943,
      "ambi": 944,
      "cchi": 945,
      "fun": 946,
      "gono": 947,
      "tò": 948,
      "divi": 949,
      "tivi": 950,
      "carica": 951,
      "arsi": 952,
      "articolo": 953,
      "dati": 954,
      "gio": 955,
      "elli": 956,
      "ttorio": 957,
      "gliere": 958,
      "isce": 959,
      "sario": 960,
      "ssione": 961,
      "tenti": 962,
      "nuova": 963,
      "fredi": 964,
      "utili": 965,
      "proposta": 966,
      "considera": 967,
      "ultimo": 968,
      "semplice": 969,
      "Tobia": 970,
      "VoIP": 971,
      "[...]": 972,
      "Cor": 973,
      "Sil": 974,
      "bre": 975,
      "sca": 976,
      "smo": 977,
      "vanni": 978,
      "zz": 979,
      "onisti": 980,
      "onismo": 981,
      "dimo": 982,
      "tal": 983,
      "riguar": 984,
      "lazione": 985,
      "altro": 986,
      "ann": 987,
      "ante": 988,
      "contro": 989,
      "dove": 990,
      "moder": 991,
      "qua": 992,
      "qui": 993,
      "quindi": 994,
      "ttamente": 995,
      "mesi": 996,
      "memb": 997,
      "dalle": 998,
      "gui": 999,
      "unica": 1000,
      "mbia": 1001,
      "2021": 1002,
      "grazi": 1003,
      "grafi": 1004,
      "Com": 1005,
      "inoza": 1006,
      "costituzione": 1007,
      "possibile": 1008,
      "poiché": 1009,
      "lumenarensi": 1010,
      "sociale": 1011,
      "Spinoza": 1012,
      "fronti": 1013,
      "territori": 1014,
      "governi": 1015,
      "micronazionalismo": 1016,
      "partecipa": 1017,
      "sarà": 1018,
      "zzetta": 1019,
      "dimissioni": 1020,
      "Giovanni": 1021,
      "Dopo": 1022,
      "EN": 1023,
      "IV": 1024,
      "Lan": 1025,
      "Testa": 1026,
      "ago": 1027,
      "cro": 1028,
      "fal": 1029,
      "imo": 1030,
      "mer": 1031,
      "spi": 1032,
      "ua": 1033,
      "tina": 1034,
      "tag": 1035,
      "labo": 1036,
      "altra": 1037,
      "letter": 1038,
      "raio": 1039,
      "ratter": 1040,
      "potere": 1041,
      "caso": 1042,
      "caratter": 1043,
      "esp": 1044,
      "esto": 1045,
      "quanto": 1046,
      "bbraio": 1047,
      "mette": 1048,
      "protag": 1049,
      "vota": 1050,
      "vece": 1051,
      "201": 1052,
      "getto": 1053,
      "inizio": 1054,
      "senatore": 1055,
      "bilità": 1056,
      "ideologie": 1057,
      "Ministro": 1058,
      "Davide": 1059,
      "livello": 1060,
      "Lanfredi": 1061,
      "agosto": 1062,
      "12": 1063,
      "Ac": 1064,
      "Cano": 1065,
      "Fu": 1066,
      "Po": 1067,
      "Sto": 1068,
      "Tra": 1069,
      "aver": 1070,
      "ede": 1071,
      "evi": 1072,
      "ora": 1073,
      "uta": 1074,
      "allo": 1075,
      "informa": 1076,
      "invece": 1077,
      "ziale": 1078,
      "rare": 1079,
      "carico": 1080,
      "esse": 1081,
      "mozione": 1082,
      "momento": 1083,
      "sopra": 1084,
      "maggior": 1085,
      "data": 1086,
      "dare": 1087,
      "vata": 1088,
      "prog": 1089,
      "teri": 1090,
      "nazione": 1091,
      "quest": 1092,
      "parla": 1093,
      "avanti": 1094,
      "mondi": 1095,
      "culturali": 1096,
      "Vice": 1097,
      "missione": 1098,
      "istituzioni": 1099,
      "opere": 1100,
      "Martina": 1101,
      "politiche": 1102,
      "dentità": 1103,
      "precedente": 1104,
      "democrazia": 1105,
      "modifica": 1106,
      "rapporti": 1107,
      "protagonisti": 1108,
      "CA": 1109,
      "Ga": 1110,
      "Nel": 1111,
      "Par": 1112,
      "TO": 1113,
      "gere": 1114,
      "rà": 1115,
      "rale": 1116,
      "uso": 1117,
      "tipo": 1118,
      "richi": 1119,
      "riforma": 1120,
      "inf": 1121,
      "capo": 1122,
      "cambia": 1123,
      "esclusi": 1124,
      "cio": 1125,
      "contra": 1126,
      "confronti": 1127,
      "arono": 1128,
      "nove": 1129,
      "quali": 1130,
      "progetto": 1131,
      "volu": 1132,
      "princi": 1133,
      "forme": 1134,
      "mane": 1135,
      "nuove": 1136,
      "zzato": 1137,
      "giorn": 1138,
      "inizi": 1139,
      "compren": 1140,
      "costituzionale": 1141,
      "sviluppo": 1142,
      "crisi": 1143,
      "alcuni": 1144,
      "definizione": 1145,
      "politici": 1146,
      "nomina": 1147,
      "riusc": 1148,
      "virtuale": 1149,
      "rappresenta": 1150,
      "Freeland": 1151,
      "aprile": 1152,
      "contin": 1153,
      "grazie": 1154,
      "Canovi": 1155,
      "13": 1156,
      "25": 1157,
      "26": 1158,
      "28": 1159,
      "DO": 1160,
      "Gia": 1161,
      "Sta": 1162,
      "Un": 1163,
      "Za": 1164,
      "[..": 1165,
      "ate": 1166,
      "agli": 1167,
      "asso": 1168,
      "avere": 1169,
      "bene": 1170,
      "gn": 1171,
      "identità": 1172,
      "messo": 1173,
      "zzi": 1174,
      "dio": 1175,
      "tor": 1176,
      "ricor": 1177,
      "rispe": 1178,
      "dette": 1179,
      "sicu": 1180,
      "sioni": 1181,
      "inattività": 1182,
      "testo": 1183,
      "anta": 1184,
      "como": 1185,
      "rac": 1186,
      "menta": 1187,
      "posto": 1188,
      "cau": 1189,
      "mio": 1190,
      "conta": 1191,
      "vimento": 1192,
      "stati": 1193,
      "unamicronazione": 1194,
      "figu": 1195,
      "sidenza": 1196,
      "compi": 1197,
      "comunque": 1198,
      "para": 1199,
      "bietti": 1200,
      "storico": 1201,
      "nelle": 1202,
      "porta": 1203,
      "nuovamente": 1204,
      "avuto": 1205,
      "tando": 1206,
      "quelle": 1207,
      "turale": 1208,
      "crescita": 1209,
      "conosc": 1210,
      "III": 1211,
      "pena": 1212,
      "ministri": 1213,
      "fondazione": 1214,
      "marzo": 1215,
      "Democra": 1216,
      "scopo": 1217,
      "rismo": 1218,
      "Gianmar": 1219,
      "Aragonia": 1220,
      "amici": 1221,
      "lungo": 1222,
      "freelandismo": 1223,
      "Atlan": 1224,
      "Silonia": 1225,
      "Gazzetta": 1226,
      "novembre": 1227,
      "Giacomo": 1228,
      "Zafi": 1229,
      "[..]": 1230,
      "Gra": 1231,
      "MEN": 1232,
      "Nonostante": 1233,
      "ON": 1234,
      "PO": 1235,
      "Pis": 1236,
      "assi": 1237,
      "apia": 1238,
      "ble": 1239,
      "centi": 1240,
      "cello": 1241,
      "den": 1242,
      "econo": 1243,
      "far": 1244,
      "gine": 1245,
      "mp": 1246,
      "rsi": 1247,
      "sla": 1248,
      "tino": 1249,
      "rela": 1250,
      "revo": 1251,
      "rifi": 1252,
      "riportato": 1253,
      "defin": 1254,
      "altri": 1255,
      "sin": 1256,
      "sieme": 1257,
      "intro": 1258,
      "insieme": 1259,
      "leggi": 1260,
      "limi": 1261,
      "posi": 1262,
      "poco": 1263,
      "posta": 1264,
      "consi": 1265,
      "contri": 1266,
      "sotto": 1267,
      "metter": 1268,
      "ella": 1269,
      "proble": 1270,
      "voti": 1271,
      "priva": 1272,
      "naio": 1273,
      "neo": 1274,
      "fase": 1275,
      "2020": 1276,
      "forte": 1277,
      "acco": 1278,
      "gram": 1279,
      "discorso": 1280,
      "collabo": 1281,
      "inizia": 1282,
      "ministra": 1283,
      "persona": 1284,
      "persone": 1285,
      "attu": 1286,
      "classico": 1287,
      "Secon": 1288,
      "Dire": 1289,
      "Marcello": 1290,
      "............................": 1291,
      "febbraio": 1292,
      "fondatore": 1293,
      "importante": 1294,
      "gruppo": 1295,
      "solamente": 1296,
      "particolare": 1297,
      "Movimento": 1298,
      "membri": 1299,
      "progetti": 1300,
      "CAPO": 1301,
      "riuscì": 1302,
      "Gianmarco": 1303,
      "Grazi": 1304,
      "Pisapia": 1305,
      "18": 1306,
      "21": 1307,
      "22": 1308,
      "For": 1309,
      "Mani": 1310,
      "Pa": 1311,
      "Ste": 1312,
      "Ter": 1313,
      "amb": 1314,
      "cano": 1315,
      "ff": 1316,
      "fano": 1317,
      "ib": 1318,
      "ky": 1319,
      "lin": 1320,
      "ness": 1321,
      "ossi": 1322,
      "sente": 1323,
      "sky": 1324,
      "utenti": 1325,
      "tici": 1326,
      "rie": 1327,
      "riche": 1328,
      "deve": 1329,
      "alo": 1330,
      "sito": 1331,
      "simu": 1332,
      "incarico": 1333,
      "lia": 1334,
      "razione": 1335,
      "raggiun": 1336,
      "care": 1337,
      "sette": 1338,
      "conclu": 1339,
      "arri": 1340,
      "artico": 1341,
      "mografi": 1342,
      "ordi": 1343,
      "umento": 1344,
      "pic": 1345,
      "processo": 1346,
      "pure": 1347,
      "alità": 1348,
      "passa": 1349,
      "pass": 1350,
      "unico": 1351,
      "diamo": 1352,
      "acce": 1353,
      "gramma": 1354,
      "portare": 1355,
      "appa": 1356,
      "fondire": 1357,
      "avven": 1358,
      "zzare": 1359,
      "zzazione": 1360,
      "presenti": 1361,
      "colpo": 1362,
      "indivi": 1363,
      "abbiamo": 1364,
      "ssero": 1365,
      "fondamen": 1366,
      "deriva": 1367,
      "mbio": 1368,
      "Vittorio": 1369,
      "giugno": 1370,
      "................................................................................................": 1371,
      "ideologia": 1372,
      "esperienza": 1373,
      "legisla": 1374,
      "risulta": 1375,
      "quasi": 1376,
      "Commissione": 1377,
      "Grazisky": 1378,
      "Stefano": 1379,
      "23": 1380,
      "Oper": 1381,
      "PA": 1382,
      "Pia": 1383,
      "Sci": 1384,
      "Tele": 1385,
      "Uni": 1386,
      "ber": 1387,
      "ban": 1388,
      "dendo": 1389,
      "ei": 1390,
      "fli": 1391,
      "ità": 1392,
      "nero": 1393,
      "op": 1394,
      "oltre": 1395,
      "ppi": 1396,
      "spa": 1397,
      "stro": 1398,
      "ttutto": 1399,
      "xe": 1400,
      "zzo": 1401,
      "enze": 1402,
      "disti": 1403,
      "dichia": 1404,
      "erà": 1405,
      "repubbli": 1406,
      "dedi": 1407,
      "detto": 1408,
      "teca": 1409,
      "ana": 1410,
      "let": 1411,
      "rati": 1412,
      "unt": 1413,
      "mentre": 1414,
      "essione": 1415,
      "nostra": 1416,
      "quinto": 1417,
      "sol": 1418,
      "sov": 1419,
      "soli": 1420,
      "vista": 1421,
      "ortino": 1422,
      "ttato": 1423,
      "sue": 1424,
      "produzione": 1425,
      "pur": 1426,
      "tero": 1427,
      "onenti": 1428,
      "fici": 1429,
      "Regno": 1430,
      "comune": 1431,
      "queste": 1432,
      "fac": 1433,
      "nell": 1434,
      "forum": 1435,
      "rante": 1436,
      "luglio": 1437,
      "micronazionileonensi": 1438,
      "mble": 1439,
      "mani": 1440,
      "nuovi": 1441,
      "appena": 1442,
      "ulla": 1443,
      "creazione": 1444,
      "Capo": 1445,
      "ficare": 1446,
      "Questa": 1447,
      "idea": 1448,
      "canale": 1449,
      "statale": 1450,
      "successo": 1451,
      "classica": 1452,
      "operazione": 1453,
      "gennaio": 1454,
      "concetto": 1455,
      "territorio": 1456,
      "Aragonismo": 1457,
      "Sozzi": 1458,
      "Ciua": 1459,
      "Luxe": 1460,
      "candidati": 1461,
      "Cultura": 1462,
      "necessario": 1463,
      "differenza": 1464,
      "riguardo": 1465,
      "falli": 1466,
      "soprattutto": 1467,
      "princip": 1468,
      "figura": 1469,
      "Zafiria": 1470,
      "account": 1471,
      "Seconda": 1472,
      "ossia": 1473,
      "individu": 1474,
      "Piazza": 1475,
      "Sciortino": 1476,
      "Ele": 1477,
      "Fon": 1478,
      "UMEN": 1479,
      "ati": 1480,
      "ata": 1481,
      "aven": 1482,
      "arismo": 1483,
      "cò": 1484,
      "dono": 1485,
      "ec": 1486,
      "ex": 1487,
      "gge": 1488,
      "mano": 1489,
      "mese": 1490,
      "nonostante": 1491,
      "ore": 1492,
      "ppia": 1493,
      "rò": 1494,
      "sé": 1495,
      "ssono": 1496,
      "vò": 1497,
      "tiche": 1498,
      "rin": 1499,
      "lar": 1500,
      "lavo": 1501,
      "detta": 1502,
      "incen": 1503,
      "inelli": 1504,
      "tema": 1505,
      "anali": 1506,
      "lev": 1507,
      "possono": 1508,
      "cita": 1509,
      "cità": 1510,
      "....................": 1511,
      "mità": 1512,
      "argo": 1513,
      "sosp": 1514,
      "vizi": 1515,
      "programma": 1516,
      "Lumenari": 1517,
      "ttori": 1518,
      "glia": 1519,
      "presente": 1520,
      "saggio": 1521,
      "eremo": 1522,
      "nare": 1523,
      "partito": 1524,
      "Presidenza": 1525,
      "ranno": 1526,
      "elezione": 1527,
      "Quinto": 1528,
      "volon": 1529,
      "interessi": 1530,
      "indipen": 1531,
      "deciso": 1532,
      "atten": 1533,
      "succe": 1534,
      "approfondire": 1535,
      "Defini": 1536,
      "lioteca": 1537,
      "grandi": 1538,
      "carlo": 1539,
      "Spinelli": 1540,
      "Giancarlo": 1541,
      "ufficiale": 1542,
      "varie": 1543,
      "riusci": 1544,
      "inaugu": 1545,
      "gestione": 1546,
      "personali": 1547,
      "scelta": 1548,
      "discussione": 1549,
      "insedi": 1550,
      "popolo": 1551,
      "annessione": 1552,
      "caratteri": 1553,
      "votazioni": 1554,
      "Vicepresidente": 1555,
      "influ": 1556,
      "causa": 1557,
      "contribu": 1558,
      "settembre": 1559,
      "Telegram": 1560,
      "distin": 1561,
      "sovran": 1562,
      "Quintomondo": 1563,
      "15": 1564,
      "19": 1565,
      "27": 1566,
      "30": 1567,
      "CUMEN": 1568,
      "DI": 1569,
      "DPA": 1570,
      "IT": 1571,
      "Istitu": 1572,
      "Iber": 1573,
      "Oltre": 1574,
      "Pas": 1575,
      "Sono": 1576,
      "amente": 1577,
      "ampi": 1578,
      "dando": 1579,
      "egli": 1580,
      "eman": 1581,
      "emer": 1582,
      "gar": 1583,
      "gare": 1584,
      "mal": 1585,
      "obietti": 1586,
      "sper": 1587,
      "sten": 1588,
      "stre": 1589,
      "vin": 1590,
      "diLeonia": 1591,
      "regi": 1592,
      "rego": 1593,
      "rice": 1594,
      "riten": 1595,
      "rifer": 1596,
      "lasci": 1597,
      "deva": 1598,
      "simi": 1599,
      "ramente": 1600,
      "zionali": 1601,
      "cata": 1602,
      "essen": 1603,
      "setti": 1604,
      "mise": 1605,
      "rocra": 1606,
      "consegu": 1607,
      "confli": 1608,
      "motivo": 1609,
      "quas": 1610,
      "sor": 1611,
      "vio": 1612,
      "mato": 1613,
      "state": 1614,
      "nonché": 1615,
      "Repubblic": 1616,
      "senso": 1617,
      "nazionale": 1618,
      "favo": 1619,
      "accu": 1620,
      "tru": 1621,
      "siasi": 1622,
      "creare": 1623,
      "formazione": 1624,
      "Infatti": 1625,
      "ssemble": 1626,
      "Questi": 1627,
      "idee": 1628,
      "fficiente": 1629,
      "ricoperto": 1630,
      "Anche": 1631,
      "fondata": 1632,
      "attra": 1633,
      "direttamente": 1634,
      "istituzionale": 1635,
      "burocra": 1636,
      "ruoli": 1637,
      "diverse": 1638,
      "Ministri": 1639,
      "occu": 1640,
      "riconosc": 1641,
      "riconosce": 1642,
      "basa": 1643,
      "qualsiasi": 1644,
      "ottenere": 1645,
      "liber": 1646,
      "Culturale": 1647,
      "arcadiano": 1648,
      "arcadiani": 1649,
      "amministra": 1650,
      "dicembre": 1651,
      "successivamente": 1652,
      "funzion": 1653,
      "dimostra": 1654,
      "talmente": 1655,
      "esponenti": 1656,
      "Acquas": 1657,
      "Storia": 1658,
      "allora": 1659,
      "mondista": 1660,
      "Partito": 1661,
      "esclusivamente": 1662,
      "voluzione": 1663,
      "continu": 1664,
      "DOCUMEN": 1665,
      "identitàleonense": 1666,
      "rispetto": 1667,
      "mettere": 1668,
      "Maniero": 1669,
      "Lumenarista": 1670,
      "Iberia": 1671,
      "ssemblea": 1672,
      "Acquasanta": 1673,
      "DOCUMENTO": 1674,
      "16": 1675,
      "50": 1676,
      "Assemblea": 1677,
      "Cer": 1678,
      "Cio": 1679,
      "Ie": 1680,
      "Itali": 1681,
      "Omar": 1682,
      "Ramb": 1683,
      "Una": 1684,
      "Yu": 1685,
      "ada": 1686,
      "agi": 1687,
      "affi": 1688,
      "ass": 1689,
      "arag": 1690,
      "aggiun": 1691,
      "cin": 1692,
      "cando": 1693,
      "feno": 1694,
      "ita": 1695,
      "lon": 1696,
      "len": 1697,
      "line": 1698,
      "nere": 1699,
      "otto": 1700,
      "ostra": 1701,
      "pr": 1702,
      "sal": 1703,
      "studi": 1704,
      "ute": 1705,
      "ynere": 1706,
      "dizione": 1707,
      "tata": 1708,
      "riti": 1709,
      "rimane": 1710,
      "rilev": 1711,
      "dec": 1712,
      "desso": 1713,
      "aldi": 1714,
      "coin": 1715,
      "pochi": 1716,
      "cariche": 1717,
      "eso": 1718,
      "ciato": 1719,
      "ilo": 1720,
      "sepp": 1721,
      "mite": 1722,
      "condivi": 1723,
      "tutta": 1724,
      "sosten": 1725,
      "meglio": 1726,
      "profonda": 1727,
      "pul": 1728,
      "terno": 1729,
      "prese": 1730,
      "preso": 1731,
      "presso": 1732,
      "tramite": 1733,
      "saggi": 1734,
      "sarebbe": 1735,
      "ssimo": 1736,
      "ssioni": 1737,
      "compro": 1738,
      "compa": 1739,
      "duta": 1740,
      "durante": 1741,
      "tensioni": 1742,
      "vendi": 1743,
      "vengono": 1744,
      "vennero": 1745,
      "mini": 1746,
      "minimo": 1747,
      "futu": 1748,
      "rando": 1749,
      "mana": 1750,
      "distru": 1751,
      "Col": 1752,
      "corr": 1753,
      "tanti": 1754,
      "interessa": 1755,
      "spetti": 1756,
      "colleg": 1757,
      "stru": 1758,
      "strumento": 1759,
      "gnifica": 1760,
      "diretta": 1761,
      "molti": 1762,
      "Microna": 1763,
      "possiamo": 1764,
      "possibilità": 1765,
      "svilupp": 1766,
      "fru": 1767,
      "Giusepp": 1768,
      "piatta": 1769,
      "diritti": 1770,
      "opera": 1771,
      "eventi": 1772,
      "consider": 1773,
      "riconosci": 1774,
      "governa": 1775,
      "micronazionalisti": 1776,
      "fosse": 1777,
      "ggere": 1778,
      "prende": 1779,
      "gruppi": 1780,
      "intento": 1781,
      "sciol": 1782,
      "origine": 1783,
      "micronazionalista": 1784,
      "Corte": 1785,
      "scambio": 1786,
      "territoriale": 1787,
      "partecipazione": 1788,
      "spie": 1789,
      "maggioranza": 1790,
      "precedentemente": 1791,
      "rappresentativa": 1792,
      "economia": 1793,
      "problemi": 1794,
      "lingu": 1795,
      "articoli": 1796,
      "mografico": 1797,
      "garanti": 1798,
      "conflitto": 1799,
      "attraverso": 1800,
      "libertà": 1801,
      "Ciompi": 1802,
      "Iemma": 1803,
      "Rambaldi": 1804,
      "Yuri": 1805,
      "ostraci": 1806,
      "Giuseppe": 1807,
      "24": 1808,
      "Ad": 1809,
      "Bib": 1810,
      "Egli": 1811,
      "Genti": 1812,
      "Im": 1813,
      "ION": 1814,
      "Lo": 1815,
      "Ogni": 1816,
      "Popo": 1817,
      "RI": 1818,
      "Roc": 1819,
      "Su": 1820,
      "Sesto": 1821,
      "Te": 1822,
      "Uffici": 1823,
      "ZION": 1824,
      "ado": 1825,
      "aperto": 1826,
      "dca": 1827,
      "denza": 1828,
      "età": 1829,
      "he": 1830,
      "hi": 1831,
      "imento": 1832,
      "of": 1833,
      "om": 1834,
      "rre": 1835,
      "saria": 1836,
      "we": 1837,
      "ensi": 1838,
      "enziale": 1839,
      "dic": 1840,
      "erò": 1841,
      "erali": 1842,
      "tore": 1843,
      "resp": 1844,
      "refer": 1845,
      "rima": 1846,
      "siano": 1847,
      "significa": 1848,
      "infine": 1849,
      "ane": 1850,
      "coloro": 1851,
      "rata": 1852,
      "cam": 1853,
      "capa": 1854,
      "ciale": 1855,
      "secu": 1856,
      "percorso": 1857,
      "conten": 1858,
      "conces": 1859,
      "chetta": 1860,
      "ardi": 1861,
      "armi": 1862,
      "archi": 1863,
      "tuttavia": 1864,
      "notare": 1865,
      "nostro": 1866,
      "visto": 1867,
      "gistra": 1868,
      "giov": 1869,
      "ormai": 1870,
      "ttan": 1871,
      "ttare": 1872,
      "stava": 1873,
      "proce": 1874,
      "prove": 1875,
      "propor": 1876,
      "voto": 1877,
      "versario": 1878,
      "onorifi": 1879,
      "istica": 1880,
      "nio": 1881,
      "eredi": 1882,
      "Leynere": 1883,
      "vedeva": 1884,
      "primi": 1885,
      "nascita": 1886,
      "parlare": 1887,
      "dalo": 1888,
      "tenere": 1889,
      "ranco": 1890,
      "mbe": 1891,
      "mbra": 1892,
      "Zanardi": 1893,
      "attivo": 1894,
      "accol": 1895,
      "appli": 1896,
      "Così": 1897,
      "trò": 1898,
      "avrebbe": 1899,
      "corre": 1900,
      "creto": 1901,
      "presentato": 1902,
      "pensi": 1903,
      "abbia": 1904,
      "molte": 1905,
      "possibili": 1906,
      "migliore": 1907,
      "approvata": 1908,
      "titolo": 1909,
      "esis": 1910,
      "esist": 1911,
      "alcune": 1912,
      "sociali": 1913,
      "punti": 1914,
      "basi": 1915,
      "organizza": 1916,
      "fece": 1917,
      "Mario": 1918,
      "trattato": 1919,
      "libera": 1920,
      "virtuali": 1921,
      "lunga": 1922,
      "democratica": 1923,
      "integra": 1924,
      "prendere": 1925,
      "fondatori": 1926,
      "PdR": 1927,
      "autori": 1928,
      "diventare": 1929,
      "dovrebbe": 1930,
      "personale": 1931,
      "FederaleLeonense": 1932,
      "Freelandismo": 1933,
      "legitti": 1934,
      "scelto": 1935,
      "affron": 1936,
      "particolar": 1937,
      "sciogliere": 1938,
      "svolsero": 1939,
      "sviluppate": 1940,
      "breve": 1941,
      "zzò": 1942,
      "benefici": 1943,
      "contatto": 1944,
      "Atlante": 1945,
      "posizione": 1946,
      "collaborazione": 1947,
      "iniziative": 1948,
      "apparato": 1949,
      "legislatura": 1950,
      "maniera": 1951,
      "volontà": 1952,
      "succedette": 1953,
      "insediò": 1954,
      "Istituto": 1955,
      "favore": 1956,
      "Italia": 1957,
      "Colpo": 1958,
      "Biblioteca": 1959,
      "Rocchetta": 1960,
      "dcast": 1961,
      "giovane": 1962,
      "Leynerech": 1963,
      ");": 1964,
      "Ce": 1965,
      "Cre": 1966,
      "En": 1967,
      "Es": 1968,
      "Fa": 1969,
      "Na": 1970,
      "Oggi": 1971,
      "Pi": 1972,
      "Pu": 1973,
      "Pat": 1974,
      "Ro": 1975,
      "Svilu": 1976,
      "Timo": 1977,
      "Vagli": 1978,
      "au": 1979,
      "aper": 1980,
      "abi": 1981,
      "amento": 1982,
      "bil": 1983,
      "bro": 1984,
      "euna": 1985,
      "ebbe": 1986,
      "fle": 1987,
      "franco": 1988,
      "ir": 1989,
      "messa": 1990,
      "messi": 1991,
      "nato": 1992,
      "nulla": 1993,
      "pano": 1994,
      "stu": 1995,
      "speri": 1996,
      "vvi": 1997,
      "ense": 1998,
      "dip": 1999,
      "diun": 2000,
      "diera": 2001,
      "diffici": 2002,
      "totale": 2003,
      "totalmente": 2004,
      "tazione": 2005,
      "tario": 2006,
      "rebb": 2007,
      "............": 2008,
      "lamente": 2009,
      "lamento": 2010,
      "anzi": 2011,
      "andalo": 2012,
      "zialmente": 2013,
      "costru": 2014,
      "letive": 2015,
      "lettore": 2016,
      "lista": 2017,
      "mentare": 2018,
      "pote": 2019,
      "poter": 2020,
      "poten": 2021,
      "poss": 2022,
      "eser": 2023,
      "espre": 2024,
      "sembra": 2025,
      "concen": 2026,
      "dotto": 2027,
      "dovere": 2028,
      "ture": 2029,
      "sole": 2030,
      "vice": 2031,
      "mag": 2032,
      "cruti": 2033,
      "riae": 2034,
      "pire": 2035,
      "sura": 2036,
      "ell": 2037,
      "Lumenarismo": 2038,
      "entemente": 2039,
      "onore": 2040,
      "ispi": 2041,
      "fisi": 2042,
      "presa": 2043,
      "presero": 2044,
      "Legge": 2045,
      "dubb": 2046,
      "pag": 2047,
      "patri": 2048,
      "natura": 2049,
      "trovare": 2050,
      "dallo": 2051,
      "stizia": 2052,
      "faci": 2053,
      "storica": 2054,
      "fusione": 2055,
      "unione": 2056,
      "stesse": 2057,
      "eletti": 2058,
      "eleggere": 2059,
      "scandalo": 2060,
      "attiva": 2061,
      "accen": 2062,
      "cordo": 2063,
      "formare": 2064,
      "enealo": 2065,
      "istiche": 2066,
      "presentò": 2067,
      "monio": 2068,
      "Queste": 2069,
      "inoltre": 2070,
      "indire": 2071,
      "strò": 2072,
      "esecu": 2073,
      "stanza": 2074,
      "direttori": 2075,
      "utente": 2076,
      "utile": 2077,
      "giudi": 2078,
      "Demografico": 2079,
      "Sezione": 2080,
      "ritor": 2081,
      "Marco": 2082,
      "diversa": 2083,
      "pratica": 2084,
      "ppletive": 2085,
      "Gianfranco": 2086,
      "entrare": 2087,
      "qualcosa": 2088,
      "nominare": 2089,
      "trattative": 2090,
      "partiti": 2091,
      "ottenne": 2092,
      "valori": 2093,
      "libero": 2094,
      "partecip": 2095,
      "ggetti": 2096,
      "PdL": 2097,
      "dovuto": 2098,
      "proprietà": 2099,
      "…………………………………………": 2100,
      "popolazione": 2101,
      "necessaria": 2102,
      "Prima": 2103,
      "Princi": 2104,
      "sviluppata": 2105,
      "gioco": 2106,
      "dimostrò": 2107,
      "moderne": 2108,
      "partecipativa": 2109,
      "letteraria": 2110,
      "cambiamenti": 2111,
      "assolu": 2112,
      "Democratica": 2113,
      "mpesta": 2114,
      "revoli": 2115,
      "Terza": 2116,
      "ffri": 2117,
      "bandiera": 2118,
      "lettura": 2119,
      "fallimento": 2120,
      "individuo": 2121,
      "avendo": 2122,
      "analisi": 2123,
      "indipendente": 2124,
      "Definizione": 2125,
      "sovranità": 2126,
      "essendo": 2127,
      "Questione": 2128,
      "Certamente": 2129,
      "fenomeno": 2130,
      "ottobre": 2131,
      "coinvol": 2132,
      "futuro": 2133,
      "interessati": 2134,
      "piattaforma": 2135,
      "ostracismo": 2136,
      "Gentile": 2137,
      "web": 2138,
      "gistratura": 2139,
      "ttanto": 2140,
      "Sviluppo": 2141,
      "panora": 2142,
      "crutinio": 2143,
      "patrimonio": 2144,
      "enealogi": 2145,
      "17": 2146,
      "Age": 2147,
      "Ber": 2148,
      "Essa": 2149,
      "Gh": 2150,
      "Gen": 2151,
      "Gran": 2152,
      "No": 2153,
      "Nei": 2154,
      "Ono": 2155,
      "Pro": 2156,
      "ST": 2157,
      "Str": 2158,
      "Tale": 2159,
      "Vincen": 2160,
      "[=": 2161,
      "adi": 2162,
      "bor": 2163,
      "cco": 2164,
      "cch": 2165,
      "centro": 2166,
      "df": 2167,
      "dan": 2168,
      "ef": 2169,
      "et": 2170,
      "esiste": 2171,
      "fed": 2172,
      "gre": 2173,
      "itali": 2174,
      "luo": 2175,
      "lino": 2176,
      "male": 2177,
      "mone": 2178,
      "meri": 2179,
      "oria": 2180,
      "oppo": 2181,
      "oppor": 2182,
      "pdf": 2183,
      "svi": 2184,
      "scu": 2185,
      "sando": 2186,
      "stri": 2187,
      "scono": 2188,
      "scar": 2189,
      "scrutinio": 2190,
      "tono": 2191,
      "tran": 2192,
      "us": 2193,
      "utto": 2194,
      "usia": 2195,
      "vono": 2196,
      "”)": 2197,
      "dico": 2198,
      "dista": 2199,
      "dine": 2200,
      "dimento": 2201,
      "disc": 2202,
      "divenne": 2203,
      "dimise": 2204,
      "dimettere": 2205,
      "erro": 2206,
      "tivamente": 2207,
      "tano": 2208,
      "resta": 2209,
      "reali": 2210,
      "rezza": 2211,
      "recla": 2212,
      "ricon": 2213,
      "riman": 2214,
      "rispetti": 2215,
      "desid": 2216,
      "determin": 2217,
      "situ": 2218,
      "simb": 2219,
      "inta": 2220,
      "invi": 2221,
      "incenti": 2222,
      "colo": 2223,
      "cosid": 2224,
      "unto": 2225,
      "unani": 2226,
      "podcast": 2227,
      "cade": 2228,
      "capito": 2229,
      "caduta": 2230,
      "espul": 2231,
      "cir": 2232,
      "segna": 2233,
      "conte": 2234,
      "concittadini": 2235,
      "conser": 2236,
      "contesto": 2237,
      "modu": 2238,
      "mostra": 2239,
      "tuto": 2240,
      "tualmente": 2241,
      "loma": 2242,
      "noi": 2243,
      "nor": 2244,
      "onare": 2245,
      "vie": 2246,
      "mare": 2247,
      "dav": 2248,
      "vazione": 2249,
      "bbene": 2250,
      "umenti": 2251,
      "pieno": 2252,
      "metten": 2253,
      "superio": 2254,
      "suppletive": 2255,
      "stabili": 2256,
      "procla": 2257,
      "votare": 2258,
      "versi": 2259,
      "versione": 2260,
      "Lumenar": 2261,
      "terio": 2262,
      "ttorale": 2263,
      "onense": 2264,
      "fico": 2265,
      "prevedeva": 2266,
      "tras": 2267,
      "sappia": 2268,
      "compito": 2269,
      "dura": 2270,
      "durre": 2271,
      "sento": 2272,
      "senti": 2273,
      "paro": 2274,
      "nasce": 2275,
      "troppo": 2276,
      "parten": 2277,
      "tenta": 2278,
      "stori": 2279,
      "nello": 2280,
      "finché": 2281,
      "Senatori": 2282,
      "onista": 2283,
      "accordo": 2284,
      "grado": 2285,
      "grazio": 2286,
      "grafo": 2287,
      "chiesta": 2288,
      "edere": 2289,
      "siamo": 2290,
      "impa": 2291,
      "sull": 2292,
      "sulle": 2293,
      "corsi": 2294,
      "volte": 2295,
      "intero": 2296,
      "spesso": 2297,
      "ficazione": 2298,
      "Perusia": 2299,
      "Leonensi": 2300,
      "canali": 2301,
      "pensa": 2302,
      "sser": 2303,
      "certo": 2304,
      "certi": 2305,
      "cercando": 2306,
      "derà": 2307,
      "uttura": 2308,
      "approvato": 2309,
      "comunitàsociale": 2310,
      "scoper": 2311,
      "scegliere": 2312,
      "alcun": 2313,
      "All": 2314,
      "diverti": 2315,
      "definire": 2316,
      "social": 2317,
      "Ministero": 2318,
      "diffusione": 2319,
      "presentata": 2320,
      "...........................": 2321,
      "concezione": 2322,
      "entrambi": 2323,
      "entrambe": 2324,
      "ufficio": 2325,
      "ufficiali": 2326,
      "precedenti": 2327,
      "valute": 2328,
      "amico": 2329,
      "integ": 2330,
      "numerosi": 2331,
      "importanti": 2332,
      "importanza": 2333,
      "servizi": 2334,
      "intende": 2335,
      "rapporto": 2336,
      "freelandista": 2337,
      "abbandon": 2338,
      "Corpo": 2339,
      "dovette": 2340,
      "2017": 2341,
      "evidente": 2342,
      "ciompi": 2343,
      "giornal": 2344,
      "iniziò": 2345,
      "sicuro": 2346,
      "assieme": 2347,
      "relazioni": 2348,
      "consigli": 2349,
      "collaborato": 2350,
      "Direttore": 2351,
      "Direttorio": 2352,
      "ffetti": 2353,
      "simula": 2354,
      "passaggio": 2355,
      "accetta": 2356,
      "Operazione": 2357,
      "oppure": 2358,
      "spazio": 2359,
      "repubblica": 2360,
      "principale": 2361,
      "Elettorale": 2362,
      "Fonda": 2363,
      "lavoro": 2364,
      "attenzione": 2365,
      "riuscito": 2366,
      "Pasquale": 2367,
      "obiettivi": 2368,
      "riferimento": 2369,
      "simile": 2370,
      "settimane": 2371,
      "conseguenza": 2372,
      "occupa": 2373,
      "riconoscere": 2374,
      "cinque": 2375,
      "prì": 2376,
      "studio": 2377,
      "ritiene": 2378,
      "declino": 2379,
      "profondamente": 2380,
      "governative": 2381,
      "Imper": 2382,
      "Sestomondo": 2383,
      "Tempesta": 2384,
      "ZIONE": 2385,
      "capacità": 2386,
      "pensiero": 2387,
      "esistenti": 2388,
      "Fattore": 2389,
      "Pubbli": 2390,
      "Patriae": 2391,
      "Vaglium": 2392,
      "diploma": 2393,
      "fisico": 2394,
      "esecutivo": 2395,
      "Agepoli": 2396,
      "Berini": 2397,
      "Ghel": 2398,
      "Struttura": 2399,
      "Vincenzo": 2400,
      "moneta": 2401,
      "uttosto": 2402,
      "situazione": 2403,
      "simbo": 2404,
      "mettendo": 2405,
      ",>": 2406,
      ".]": 2407,
      "29": 2408,
      "<,>": 2409,
      "Ap": 2410,
      "ATO": 2411,
      "CC": 2412,
      "Cd": 2413,
      "Dal": 2414,
      "El": 2415,
      "Fra": 2416,
      "IL": 2417,
      "IN": 2418,
      "LA": 2419,
      "LE": 2420,
      "Lum": 2421,
      "Men": 2422,
      "Ne": 2423,
      "Rin": 2424,
      "Setti": 2425,
      "Tor": 2426,
      "UZIONE": 2427,
      "XIV": 2428,
      "[/": 2429,
      "aumen": 2430,
      "atta": 2431,
      "appo": 2432,
      "asse": 2433,
      "aggio": 2434,
      "augu": 2435,
      "bas": 2436,
      "ccia": 2437,
      "ccar": 2438,
      "ccio": 2439,
      "esia": 2440,
      "farlo": 2441,
      "farsi": 2442,
      "gente": 2443,
      "irono": 2444,
      "llo": 2445,
      "lmente": 2446,
      "lpe": 2447,
      "muo": 2448,
      "mero": 2449,
      "né": 2450,
      "nò": 2451,
      "naria": 2452,
      "odi": 2453,
      "otti": 2454,
      "offri": 2455,
      "pato": 2456,
      "puni": 2457,
      "rmi": 2458,
      "rali": 2459,
      "rlan": 2460,
      "scon": 2461,
      "sma": 2462,
      "tuna": 2463,
      "vali": 2464,
      "vuo": 2465,
      "enz": 2466,
      "enon": 2467,
      "die": 2468,
      "dito": 2469,
      "dialo": 2470,
      "erra": 2471,
      "topic": 2472,
      "tipi": 2473,
      "recenti": 2474,
      "riera": 2475,
      "riporta": 2476,
      "rifondazione": 2477,
      "lato": 2478,
      "lari": 2479,
      "lastessa": 2480,
      "debb": 2481,
      "decesso": 2482,
      "almeno": 2483,
      "inci": 2484,
      "inno": 2485,
      "tempi": 2486,
      "ziali": 2487,
      "ragi": 2488,
      "rasse": 2489,
      "uncia": 2490,
      "delli": 2491,
      "menzia": 2492,
      "potr": 2493,
      "possa": 2494,
      "esa": 2495,
      "esti": 2496,
      "cipa": 2497,
      "...................": 2498,
      "mier": 2499,
      "mili": 2500,
      "micro": 2501,
      "perfino": 2502,
      "permesso": 2503,
      "conto": 2504,
      "confer": 2505,
      "arti": 2506,
      "doc": 2507,
      "doppia": 2508,
      "motivi": 2509,
      "lora": 2510,
      "nov": 2511,
      "noti": 2512,
      "nota": 2513,
      "sostitu": 2514,
      "somma": 2515,
      "vis": 2516,
      "vigo": 2517,
      "mata": 2518,
      "mazione": 2519,
      "massimo": 2520,
      "date": 2521,
      "vati": 2522,
      "vamo": 2523,
      "piano": 2524,
      "meto": 2525,
      "metà": 2526,
      "super": 2527,
      "stabilità": 2528,
      "voi": 2529,
      "vera": 2530,
      "versa": 2531,
      "presto": 2532,
      "predecesso": 2533,
      "trato": 2534,
      "tratto": 2535,
      "pubblico": 2536,
      "pubblica": 2537,
      "sape": 2538,
      "sidenziale": 2539,
      "composto": 2540,
      "RepubblicaFederaleLeonense": 2541,
      "prire": 2542,
      "passioni": 2543,
      "necessi": 2544,
      "stica": 2545,
      "veni": 2546,
      "veniva": 2547,
      "famo": 2548,
      "fazione": 2549,
      "forni": 2550,
      "formar": 2551,
      "diamento": 2552,
      "grafica": 2553,
      "portò": 2554,
      "appre": 2555,
      "chiuso": 2556,
      "scimento": 2557,
      "Conclu": 2558,
      "avesse": 2559,
      "avversario": 2560,
      "impe": 2561,
      "immag": 2562,
      "geva": 2563,
      "quelli": 2564,
      "turali": 2565,
      "ulterio": 2566,
      "crea": 2567,
      "ffica": 2568,
      "legato": 2569,
      "legami": 2570,
      "seguenti": 2571,
      "Infine": 2572,
      "Interno": 2573,
      "presenza": 2574,
      "coltà": 2575,
      "bot": 2576,
      "Quest": 2577,
      "decisione": 2578,
      "anticipa": 2579,
      "fondare": 2580,
      "cerca": 2581,
      "gate": 2582,
      "tudini": 2583,
      "avevano": 2584,
      "estate": 2585,
      "allelamente": 2586,
      "chiamato": 2587,
      "classiche": 2588,
      "classificazione": 2589,
      "approvò": 2590,
      "aspi": 2591,
      "assu": 2592,
      "giusto": 2593,
      "buon": 2594,
      "critica": 2595,
      "propose": 2596,
      "proposto": 2597,
      "esisti": 2598,
      "Diparti": 2599,
      "alcuna": 2600,
      "carriera": 2601,
      "Costituzionale": 2602,
      "CentroStudi": 2603,
      "generale": 2604,
      "Alla": 2605,
      "diversi": 2606,
      "ricamente": 2607,
      "organo": 2608,
      "elettorale": 2609,
      "gestito": 2610,
      "pratico": 2611,
      "..........................": 2612,
      "concetti": 2613,
      "Tutti": 2614,
      "base": 2615,
      "ufficialmente": 2616,
      "qualunque": 2617,
      "organizzò": 2618,
      "ultima": 2619,
      "trattati": 2620,
      "questione": 2621,
      "partire": 2622,
      "valuta": 2623,
      "gestire": 2624,
      "intesa": 2625,
      "numerose": 2626,
      "Cittadi": 2627,
      "beni": 2628,
      "completamente": 2629,
      "PdC": 2630,
      "PdS": 2631,
      "autogesti": 2632,
      "diventa": 2633,
      "esperienze": 2634,
      "voleva": 2635,
      "Riccar": 2636,
      "ugualmente": 2637,
      "solato": 2638,
      "insediamento": 2639,
      "Primo": 2640,
      "abbandono": 2641,
      "ambito": 2642,
      "cchiu": 2643,
      "funzione": 2644,
      "utilizzo": 2645,
      "considerare": 2646,
      "considerazione": 2647,
      "doveva": 2648,
      "moderno": 2649,
      "membro": 2650,
      "guida": 2651,
      "lettera": 2652,
      "caratteristiche": 2653,
      "2019": 2654,
      "Accade": 2655,
      "Furlan": 2656,
      "informazioni": 2657,
      "richiesta": 2658,
      "giornale": 2659,
      "giornali": 2660,
      "inizialmente": 2661,
      "comprendere": 2662,
      "continua": 2663,
      "Stati": 2664,
      "Statale": 2665,
      "gnato": 2666,
      "torneo": 2667,
      "ricordo": 2668,
      "mentari": 2669,
      "mentazione": 2670,
      "unamicronazioneleonense": 2671,
      "conoscenza": 2672,
      "Democrazia": 2673,
      "amicizia": 2674,
      "economi": 2675,
      "definisce": 2676,
      "introduzione": 2677,
      "limiti": 2678,
      "problema": 2679,
      "private": 2680,
      "personaggi": 2681,
      "...............................": 2682,
      "Formazione": 2683,
      "Pater": 2684,
      "simulazione": 2685,
      "ordine": 2686,
      "passato": 2687,
      "fondamentali": 2688,
      "Opere": 2689,
      "Unione": 2690,
      "solle": 2691,
      "faccia": 2692,
      "principali": 2693,
      "argomento": 2694,
      "argomenti": 2695,
      "caratterizza": 2696,
      "influenza": 2697,
      "contribuito": 2698,
      "ampia": 2699,
      "sorti": 2700,
      "accusa": 2701,
      "burocratico": 2702,
      "funzionamento": 2703,
      "adatta": 2704,
      "aragonismo": 2705,
      "aggiunta": 2706,
      "considerato": 2707,
      "riconosciuto": 2708,
      "garantire": 2709,
      "Ciompismo": 2710,
      "Popolo": 2711,
      "referen": 2712,
      "secutivi": 2713,
      "proporre": 2714,
      "esistono": 2715,
      "liberamente": 2716,
      "Nazionale": 2717,
      "Romenzia": 2718,
      "flessi": 2719,
      "difficile": 2720,
      "possano": 2721,
      "ispirato": 2722,
      "direttoriale": 2723,
      "partecipanti": 2724,
      "panorama": 2725,
      "luogo": 2726,
      "opport": 2727,
      "svivendi": 2728,
      "reclamano": 2729,
      "unanimità": 2730,
      "circa": 2731,
      "modusvivendi": 2732,
      "superiore": 2733,
      "sappiamo": 2734,
      "scoperta": 2735,
      "Ghelda": 2736,
      "CCL": 2737,
      "CdS": 2738,
      "Ringrazio": 2739,
      "Settimana": 2740,
      "Torneo": 2741,
      "odier": 2742,
      "dialogo": 2743,
      "potrà": 2744,
      "vigore": 2745,
      "sapevole": 2746,
      "Dipartimento": 2747,
      "CentroStudiLumenar": 2748,
      "Riccardo": 2749,
      "Accademia": 2750,
      ".\"": 2751,
      "36": 2752,
      "45": 2753,
      "AR": 2754,
      "Au": 2755,
      "Bu": 2756,
      "CO": 2757,
      "Cla": 2758,
      "Cav": 2759,
      "DE": 2760,
      "Ep": 2761,
      "Fe": 2762,
      "Io": 2763,
      "Ino": 2764,
      "Ini": 2765,
      "LI": 2766,
      "Nazione": 2767,
      "SI": 2768,
      "Sul": 2769,
      "TA": 2770,
      "TE": 2771,
      "UAR": 2772,
      "ag": 2773,
      "abu": 2774,
      "aggior": 2775,
      "abro": 2776,
      "astanza": 2777,
      "bri": 2778,
      "bero": 2779,
      "batti": 2780,
      "bac": 2781,
      "cli": 2782,
      "cero": 2783,
      "canza": 2784,
      "cina": 2785,
      "dò": 2786,
      "edi": 2787,
      "edo": 2788,
      "emin": 2789,
      "emu": 2790,
      "evolu": 2791,
      "efficiente": 2792,
      "evoluzione": 2793,
      "effetti": 2794,
      "fone": 2795,
      "flu": 2796,
      "foc": 2797,
      "filo": 2798,
      "gh": 2799,
      "ger": 2800,
      "genealogi": 2801,
      "iti": 2802,
      "ll": 2803,
      "lla": 2804,
      "lli": 2805,
      "mono": 2806,
      "mmeno": 2807,
      "oro": 2808,
      "obb": 2809,
      "opolitico": 2810,
      "osser": 2811,
      "poni": 2812,
      "rvi": 2813,
      "sche": 2814,
      "squ": 2815,
      "sfi": 2816,
      "sfidu": 2817,
      "seri": 2818,
      "tt": 2819,
      "ttura": 2820,
      "uro": 2821,
      "usu": 2822,
      "utare": 2823,
      "vor": 2824,
      "vinse": 2825,
      "èstato": 2826,
      "“[…]": 2827,
      ".....": 2828,
      "ensione": 2829,
      "entrò": 2830,
      "dici": 2831,
      "diffi": 2832,
      "dimenti": 2833,
      "taria": 2834,
      "tamento": 2835,
      "rec": 2836,
      "rei": 2837,
      "resto": 2838,
      "rimo": 2839,
      "rigi": 2840,
      "rità": 2841,
      "ripri": 2842,
      "ritro": 2843,
      "rivendi": 2844,
      "lati": 2845,
      "lazioni": 2846,
      "demo": 2847,
      "decadi": 2848,
      "demografi": 2849,
      "decreto": 2850,
      "devono": 2851,
      "alismo": 2852,
      "simo": 2853,
      "inda": 2854,
      "inismo": 2855,
      "inchiesta": 2856,
      "tec": 2857,
      "anze": 2858,
      "andare": 2859,
      "cose": 2860,
      "colui": 2861,
      "cooperazione": 2862,
      "lei": 2863,
      "leone": 2864,
      "lemicronazionileonensi": 2865,
      "ramento": 2866,
      "racchiu": 2867,
      "zionis": 2868,
      "mentale": 2869,
      "poca": 2870,
      "potre": 2871,
      "poesi": 2872,
      "pomeri": 2873,
      "poesia": 2874,
      "cati": 2875,
      "casi": 2876,
      "casta": 2877,
      "capitolo": 2878,
      "cambio": 2879,
      "este": 2880,
      "estre": 2881,
      "esterno": 2882,
      "chio": 2883,
      "cheremo": 2884,
      "cito": 2885,
      "ciali": 2886,
      "citato": 2887,
      "ciare": 2888,
      "cifico": 2889,
      "illeg": 2890,
      "iltermine": 2891,
      "sebbene": 2892,
      "mie": 2893,
      "mici": 2894,
      "miche": 2895,
      "miei": 2896,
      "perlo": 2897,
      "persegu": 2898,
      "permette": 2899,
      "permettendo": 2900,
      "coni": 2901,
      "concer": 2902,
      "consoli": 2903,
      "consue": 2904,
      "consecutivi": 2905,
      "consapevole": 2906,
      "dolo": 2907,
      "dotta": 2908,
      "domin": 2909,
      "mossa": 2910,
      "modelli": 2911,
      "noto": 2912,
      "quanti": 2913,
      "solu": 2914,
      "vità": 2915,
      "viste": 2916,
      "varia": 2917,
      "riamo": 2918,
      "bbero": 2919,
      "pien": 2920,
      "piuttosto": 2921,
      "aleonense": 2922,
      "medi": 2923,
      "mezzo": 2924,
      "sui": 2925,
      "suto": 2926,
      "subi": 2927,
      "sugg": 2928,
      "sufficiente": 2929,
      "dellaRepubblic": 2930,
      "elle": 2931,
      "prote": 2932,
      "provo": 2933,
      "profi": 2934,
      "profon": 2935,
      "voglia": 2936,
      "veri": 2937,
      "verà": 2938,
      "verrà": 2939,
      "terza": 2940,
      "onente": 2941,
      "iscono": 2942,
      "fir": 2943,
      "preser": 2944,
      "presidenza": 2945,
      "tratti": 2946,
      "pubblici": 2947,
      "iamente": 2948,
      "vecchi": 2949,
      "commissione": 2950,
      "prime": 2951,
      "dum": 2952,
      "duto": 2953,
      "gode": 2954,
      "golpe": 2955,
      "aliere": 2956,
      "sentito": 2957,
      "senzialmente": 2958,
      "passo": 2959,
      "navi": 2960,
      "negli": 2961,
      "neggi": 2962,
      "nemmeno": 2963,
      "biso": 2964,
      "cittadin": 2965,
      "comeleonense": 2966,
      "tenza": 2967,
      "stimo": 2968,
      "stinare": 2969,
      "storio": 2970,
      "erata": 2971,
      "erazione": 2972,
      "Senatore": 2973,
      "unità": 2974,
      "luce": 2975,
      "diare": 2976,
      "scente": 2977,
      "adra": 2978,
      "accesso": 2979,
      "manten": 2980,
      "mandati": 2981,
      "mantenere": 2982,
      "mancanza": 2983,
      "disposizione": 2984,
      "app": 2985,
      "apparti": 2986,
      "apparten": 2987,
      "chiu": 2988,
      "chiunque": 2989,
      "Codice": 2990,
      "scisma": 2991,
      "Qui": 2992,
      "Qual": 2993,
      "essante": 2994,
      "interpre": 2995,
      "interim": 2996,
      "interesse": 2997,
      "internazionale": 2998,
      "interessante": 2999,
      "creti": 3000,
      "formato": 3001,
      "formata": 3002,
      "Cari": 3003,
      "Ordine": 3004,
      "conosce": 3005,
      "FilippoZanetti": 3006,
      "boom": 3007,
      "ttere": 3008,
      "indice": 3009,
      "Pertanto": 3010,
      "ssai": 3011,
      "Arcadi": 3012,
      "compe": 3013,
      "penale": 3014,
      "abbi": 3015,
      "abbastanza": 3016,
      "statali": 3017,
      "costituente": 3018,
      "costituita": 3019,
      "cercato": 3020,
      "cercare": 3021,
      "Micro": 3022,
      "gata": 3023,
      "lumenarismo": 3024,
      "sistemi": 3025,
      "chiaro": 3026,
      "miglioramento": 3027,
      "Giustizia": 3028,
      "classificare": 3029,
      "cenze": 3030,
      "reati": 3031,
      "istituzionali": 3032,
      "proposte": 3033,
      "scoperto": 3034,
      "scoprì": 3035,
      "Diri": 3036,
      "genere": 3037,
      "ineffica": 3038,
      "Allora": 3039,
      "elettorali": 3040,
      "risposta": 3041,
      "rischio": 3042,
      ".........................": 3043,
      "concepire": 3044,
      "propone": 3045,
      "senatorie": 3046,
      "qualche": 3047,
      "CesareOrlando": 3048,
      "CarloCesareOrlando": 3049,
      "altrettanto": 3050,
      "scritti": 3051,
      "scritto": 3052,
      "scrisse": 3053,
      "scrivere": 3054,
      "Magistratura": 3055,
      "nominato": 3056,
      "ottenendo": 3057,
      "valore": 3058,
      "Somma": 3059,
      "Ciò": 3060,
      "fossero": 3061,
      "completa": 3062,
      "complessi": 3063,
      "Lumin": 3064,
      "servi": 3065,
      "rappresen": 3066,
      "candida": 3067,
      "candidato": 3068,
      "Riforma": 3069,
      "Rivoluzione": 3070,
      "discusse": 3071,
      "affa": 3072,
      "sciogli": 3073,
      "Mol": 3074,
      "aprire": 3075,
      "continuo": 3076,
      "mododi": 3077,
      "maggio2020": 3078,
      "abbandonato": 3079,
      "sviluppare": 3080,
      "secondario": 3081,
      "Attualmente": 3082,
      "ambigui": 3083,
      "utilizzato": 3084,
      "considerata": 3085,
      "riguarda": 3086,
      "moderna": 3087,
      "guidato": 3088,
      "micronazionalismoleonense": 3089,
      "GiovanniRambaldi": 3090,
      "lettere": 3091,
      "votazione": 3092,
      "Storicamente": 3093,
      "parlamento": 3094,
      "mondiste": 3095,
      "riformare": 3096,
      "cambiare": 3097,
      "esclusiva": 3098,
      "principi": 3099,
      "sicuramente": 3100,
      "compiti": 3101,
      "biettivo": 3102,
      "conoscere": 3103,
      "mpante": 3104,
      "consiglia": 3105,
      "attuale": 3106,
      "nessun": 3107,
      "nessuna": 3108,
      "nessuno": 3109,
      "ticilia": 3110,
      "arricchi": 3111,
      "ordina": 3112,
      "accedere": 3113,
      "avvenuta": 3114,
      "fondamentale": 3115,
      "opini": 3116,
      "dichiarato": 3117,
      "dedito": 3118,
      "quintomondista": 3119,
      "aventi": 3120,
      "ecc": 3121,
      "ecce": 3122,
      "extra": 3123,
      "sospeso": 3124,
      "inaugurò": 3125,
      "distingu": 3126,
      "ITUZIONE": 3127,
      "ampiamente": 3128,
      "emerg": 3129,
      "obiettivo": 3130,
      "spera": 3131,
      "regolare": 3132,
      "ritenendo": 3133,
      "settimana": 3134,
      "burocratica": 3135,
      "agire": 3136,
      "longeva": 3137,
      "lento": 3138,
      "rilevante": 3139,
      "ilogo": 3140,
      "sostenito": 3141,
      "compromesso": 3142,
      "distruzione": 3143,
      "correnti": 3144,
      "sviluppato": 3145,
      "frui": 3146,
      "fruire": 3147,
      "linguaggio": 3148,
      "offer": 3149,
      "dicendo": 3150,
      "rimasto": 3151,
      "concessione": 3152,
      "onorificenze": 3153,
      "organizzative": 3154,
      "legittimità": 3155,
      "particolarmente": 3156,
      "Ceticilia": 3157,
      "Essenzialmente": 3158,
      "apertura": 3159,
      "sperimentazione": 3160,
      "potesse": 3161,
      "espressione": 3162,
      "concentra": 3163,
      "dubbiamente": 3164,
      "facile": 3165,
      "Principato": 3166,
      "assoluta": 3167,
      "Generali": 3168,
      "STITUZIONE": 3169,
      "danneggi": 3170,
      "effe": 3171,
      "strin": 3172,
      "errori": 3173,
      "tentativo": 3174,
      "storici": 3175,
      "ciompista": 3176,
      "Mentre": 3177,
      "vuole": 3178,
      "tipica": 3179,
      "debba": 3180,
      "vissuto": 3181,
      "predecessore": 3182,
      "necessità": 3183,
      "venivano": 3184,
      "ulteriori": 3185,
      "anticipatamente": 3186,
      "referendum": 3187,
      "Buon": 3188,
      "COSTITUZIONE": 3189,
      "Cavaliere": 3190,
      "Febbraio": 3191,
      "Inoltre": 3192,
      "Sulle": 3193,
      "squadra": 3194,
      "serie": 3195,
      "usufruire": 3196,
      "difficoltà": 3197,
      "ripristinare": 3198,
      "decadimento": 3199,
      "poesie": 3200,
      "pomeriggio": 3201,
      "perlopiù": 3202,
      "concern": 3203,
      "consuetudini": 3204,
      "subito": 3205,
      "proficu": 3206,
      "appartiene": 3207,
      "\",": 3208,
      "(“": 3209,
      "31": 3210,
      "32": 3211,
      "39": 3212,
      "40": 3213,
      "42": 3214,
      "44": 3215,
      "48": 3216,
      "53": 3217,
      "AN": 3218,
      "Af": 3219,
      "Am": 3220,
      "Astra": 3221,
      "Adesso": 3222,
      "Amici": 3223,
      "Can": 3224,
      "Cro": 3225,
      "Chi": 3226,
      "Del": 3227,
      "Dalla": 3228,
      "Dall": 3229,
      "Della": 3230,
      "Edi": 3231,
      "Era": 3232,
      "Essi": 3233,
      "Esso": 3234,
      "Elia": 3235,
      "Edizione": 3236,
      "Festi": 3237,
      "Gre": 3238,
      "Gli": 3239,
      "Genealogi": 3240,
      "Ide": 3241,
      "Mon": 3242,
      "NI": 3243,
      "NO": 3244,
      "Pen": 3245,
      "Pul": 3246,
      "PRI": 3247,
      "Rap": 3248,
      "Sis": 3249,
      "Sulla": 3250,
      "Sass": 3251,
      "SLum": 3252,
      "Ten": 3253,
      "Uno": 3254,
      "Ver": 3255,
      "XXIV": 3256,
      "ala": 3257,
      "ade": 3258,
      "azi": 3259,
      "atto": 3260,
      "azioni": 3261,
      "atte": 3262,
      "aut": 3263,
      "amenti": 3264,
      "aspe": 3265,
      "adesso": 3266,
      "aspetti": 3267,
      "aFederaleLeonense": 3268,
      "aggetti": 3269,
      "be": 3270,
      "blu": 3271,
      "blioteca": 3272,
      "cca": 3273,
      "cale": 3274,
      "cente": 3275,
      "cenza": 3276,
      "cendo": 3277,
      "ccan": 3278,
      "cchia": 3279,
      "dde": 3280,
      "dar": 3281,
      "dona": 3282,
      "deno": 3283,
      "eto": 3284,
      "ela": 3285,
      "eun": 3286,
      "evol": 3287,
      "evano": 3288,
      "euro": 3289,
      "epoca": 3290,
      "fono": 3291,
      "festo": 3292,
      "gle": 3293,
      "gazione": 3294,
      "ietti": 3295,
      "ioni": 3296,
      "icittadini": 3297,
      "ivamente": 3298,
      "irsi": 3299,
      "ku": 3300,
      "mò": 3301,
      "mmo": 3302,
      "mere": 3303,
      "mera": 3304,
      "ole": 3305,
      "oggetti": 3306,
      "pes": 3307,
      "pone": 3308,
      "ppar": 3309,
      "rano": 3310,
      "sch": 3311,
      "sale": 3312,
      "sfor": 3313,
      "sesto": 3314,
      "steri": 3315,
      "ttu": 3316,
      "ubi": 3317,
      "uscente": 3318,
      "van": 3319,
      "vando": 3320,
      "vul": 3321,
      "vinto": 3322,
      "onta": 3323,
      "online": 3324,
      "ento": 3325,
      "enona": 3326,
      "enda": 3327,
      "enella": 3328,
      "diche": 3329,
      "dicui": 3330,
      "dipen": 3331,
      "diviene": 3332,
      "diquella": 3333,
      "diede": 3334,
      "disin": 3335,
      "dibatti": 3336,
      "diFilippoZanetti": 3337,
      "divul": 3338,
      "erisce": 3339,
      "tia": 3340,
      "tati": 3341,
      "tarismo": 3342,
      "rete": 3343,
      "realmente": 3344,
      "rif": 3345,
      "risi": 3346,
      "riana": 3347,
      "rilasci": 3348,
      "ricerca": 3349,
      "laLeonidia": 3350,
      "devo": 3351,
      "alti": 3352,
      "almen": 3353,
      "sion": 3354,
      "siti": 3355,
      "sizione": 3356,
      "sino": 3357,
      "sibile": 3358,
      "intra": 3359,
      "intre": 3360,
      "invio": 3361,
      "inattivo": 3362,
      "testi": 3363,
      "teoria": 3364,
      "anleonense": 3365,
      "anoni": 3366,
      "ancor": 3367,
      "zialità": 3368,
      "coper": 3369,
      "cogno": 3370,
      "costante": 3371,
      "costrin": 3372,
      "lettori": 3373,
      "lemiche": 3374,
      "limin": 3375,
      "ragrafo": 3376,
      "rampante": 3377,
      "unleonense": 3378,
      "unciato": 3379,
      "zionalismo": 3380,
      "posti": 3381,
      "posse": 3382,
      "poteri": 3383,
      "potuto": 3384,
      "polemiche": 3385,
      "cambi": 3386,
      "capire": 3387,
      "esclu": 3388,
      "estratto": 3389,
      "chen": 3390,
      "citare": 3391,
      "citore": 3392,
      "cicli": 3393,
      "illu": 3394,
      "ilmicronazionalismo": 3395,
      "iltrato": 3396,
      "seggio": 3397,
      "segre": 3398,
      ".................": 3399,
      "migli": 3400,
      "misura": 3401,
      "perno": 3402,
      "persino": 3403,
      "convo": 3404,
      "confor": 3405,
      "consul": 3406,
      "concui": 3407,
      "consiste": 3408,
      "congiu": 3409,
      "conclusi": 3410,
      "conqui": 3411,
      "condizione": 3412,
      "console": 3413,
      "cheè": 3414,
      "chesi": 3415,
      "art": 3416,
      "arre": 3417,
      "dotte": 3418,
      "mode": 3419,
      "motto": 3420,
      "tus": 3421,
      "nomi": 3422,
      "nostre": 3423,
      "quat": 3424,
      "onata": 3425,
      "sostan": 3426,
      "vigi": 3427,
      "vivere": 3428,
      "maco": 3429,
      "massi": 3430,
      "magistratura": 3431,
      "dagli": 3432,
      "daLeonia": 3433,
      "giun": 3434,
      "cru": 3435,
      "vacan": 3436,
      "riavvi": 3437,
      "ttiva": 3438,
      "metri": 3439,
      "meccan": 3440,
      "sud": 3441,
      "sugli": 3442,
      "suben": 3443,
      "stare": 3444,
      "stabile": 3445,
      "status": 3446,
      "produ": 3447,
      "prosegu": 3448,
      "promette": 3449,
      "prolunga": 3450,
      "promuo": 3451,
      "prodotte": 3452,
      "teria": 3453,
      "isse": 3454,
      "fiche": 3455,
      "ficio": 3456,
      "presi": 3457,
      "presti": 3458,
      "presidenziale": 3459,
      "trai": 3460,
      "cura": 3461,
      "pubbliche": 3462,
      "sarie": 3463,
      "erebbe": 3464,
      "Rego": 3465,
      "Repubbliche": 3466,
      "Leone": 3467,
      "ssificare": 3468,
      "ved": 3469,
      "vedere": 3470,
      "commesso": 3471,
      "composta": 3472,
      "compreso": 3473,
      "composizione": 3474,
      "cominci": 3475,
      "onet": 3476,
      "onevano": 3477,
      "onevole": 3478,
      "dute": 3479,
      "duci": 3480,
      "alisi": 3481,
      "senta": 3482,
      "pari": 3483,
      "passi": 3484,
      "paga": 3485,
      "passione": 3486,
      "nati": 3487,
      "naturali": 3488,
      "troduzione": 3489,
      "troverà": 3490,
      "parente": 3491,
      "parlando": 3492,
      "bifar": 3493,
      "biblioteca": 3494,
      "guo": 3495,
      "guerra": 3496,
      "ggiato": 3497,
      "fari": 3498,
      "famili": 3499,
      "Premier": 3500,
      "erazioni": 3501,
      "finisce": 3502,
      "forze": 3503,
      "fortuna": 3504,
      "univer": 3505,
      "universo": 3506,
      "rane": 3507,
      "lume": 3508,
      "Art": 3509,
      "stessi": 3510,
      "micronazioniche": 3511,
      "scere": 3512,
      "tator": 3513,
      "addio": 3514,
      "accia": 3515,
      "accompa": 3516,
      "gradu": 3517,
      "manente": 3518,
      "discorsi": 3519,
      "disponi": 3520,
      "port": 3521,
      "appren": 3522,
      "chiede": 3523,
      "scienti": 3524,
      "scienza": 3525,
      "trale": 3526,
      "fondo": 3527,
      "Conclusi": 3528,
      "Console": 3529,
      "Consolato": 3530,
      "Quar": 3531,
      "Quando": 3532,
      "avvi": 3533,
      "avanza": 3534,
      "avvenne": 3535,
      "ttempo": 3536,
      "tante": 3537,
      "crede": 3538,
      "creato": 3539,
      "creando": 3540,
      "create": 3541,
      "creati": 3542,
      "datore": 3543,
      "tribu": 3544,
      "leggere": 3545,
      "legate": 3546,
      "Intanto": 3547,
      "Insomma": 3548,
      "Indubbiamente": 3549,
      "Introduzione": 3550,
      "fermare": 3551,
      "endor": 3552,
      "endosi": 3553,
      "colti": 3554,
      "colla": 3555,
      "ideale": 3556,
      "ttero": 3557,
      "ciasc": 3558,
      "Permanente": 3559,
      "strano": 3560,
      "strumenti": 3561,
      "strade": 3562,
      "decide": 3563,
      "decisero": 3564,
      "componevano": 3565,
      "penso": 3566,
      "ricoprire": 3567,
      "ministeri": 3568,
      "Consigli": 3569,
      "rendere": 3570,
      "rendendo": 3571,
      "Analisi": 3572,
      "periodico": 3573,
      "attribu": 3574,
      "viamo": 3575,
      "viamente": 3576,
      "certa": 3577,
      "molta": 3578,
      "gati": 3579,
      "gari": 3580,
      "gara": 3581,
      "gazzetta": 3582,
      "sviluppar": 3583,
      "avevo": 3584,
      "succes": 3585,
      "gnazione": 3586,
      "migliorare": 3587,
      "Viva": 3588,
      "temporane": 3589,
      "anniversario": 3590,
      "approccio": 3591,
      "giuri": 3592,
      "giustizia": 3593,
      "istituzione": 3594,
      "Decreto": 3595,
      "Salva": 3596,
      "crimini": 3597,
      "esiguo": 3598,
      "scopri": 3599,
      "alcuno": 3600,
      "Costituente": 3601,
      "genze": 3602,
      "generali": 3603,
      "diverbi": 3604,
      "cessivamente": 3605,
      "aiuto": 3606,
      "definizioni": 3607,
      "AndreaLazarev": 3608,
      "pratici": 3609,
      "difen": 3610,
      "pporto": 3611,
      "frattempo": 3612,
      "fronte": 3613,
      "entrato": 3614,
      "essioni": 3615,
      "qualora": 3616,
      "Castal": 3617,
      "organizzato": 3618,
      "organizzazione": 3619,
      "rub": 3620,
      "terebbe": 3621,
      "scrive": 3622,
      "portando": 3623,
      "ultimi": 3624,
      "Maro": 3625,
      "precedesso": 3626,
      "inario": 3627,
      "strutture": 3628,
      "gestita": 3629,
      "Sociale": 3630,
      "Sociali": 3631,
      "integran": 3632,
      "modifiche": 3633,
      "video": 3634,
      "tantomeno": 3635,
      "completato": 3636,
      "Ludo": 3637,
      "autore": 3638,
      "diventato": 3639,
      "divenuto": 3640,
      "diventando": 3641,
      "intenzione": 3642,
      "intendono": 3643,
      "rappresentato": 3644,
      "esperienz": 3645,
      "volevo": 3646,
      "candid": 3647,
      "personalmente": 3648,
      "tuttele": 3649,
      "discutere": 3650,
      "discussioni": 3651,
      "semplici": 3652,
      "Rubinismo": 3653,
      "Topic": 3654,
      "Volume": 3655,
      "popolari": 3656,
      "arcadiana": 3657,
      "ampli": 3658,
      "saranno": 3659,
      "necessarie": 3660,
      "differenti": 3661,
      "differenze": 3662,
      "strutturata": 3663,
      "100": 3664,
      "svolto": 3665,
      "svolte": 3666,
      "livelli": 3667,
      "abbandonare": 3668,
      "arie": 3669,
      "ambiente": 3670,
      "ambizio": 3671,
      "funzioni": 3672,
      "divisi": 3673,
      "utilizzare": 3674,
      "semplicemente": 3675,
      "annunciato": 3676,
      "guidata": 3677,
      "territoriali": 3678,
      "merito": 3679,
      "laborato": 3680,
      "2018": 3681,
      "Poco": 3682,
      "Trattato": 3683,
      "evitando": 3684,
      "informatico": 3685,
      "informatica": 3686,
      "progre": 3687,
      "parlamentare": 3688,
      "parlamentari": 3689,
      "modificare": 3690,
      "rapportisociali": 3691,
      "Parallelamente": 3692,
      "richiedere": 3693,
      "infiltrato": 3694,
      "cambiamento": 3695,
      "contrasto": 3696,
      "contrappo": 3697,
      "contrario": 3698,
      "comprende": 3699,
      "Stagnazione": 3700,
      "tornato": 3701,
      "tornò": 3702,
      "ricordato": 3703,
      "ricordiamo": 3704,
      "rispetta": 3705,
      "sicurezza": 3706,
      "racconta": 3707,
      "causando": 3708,
      "figure": 3709,
      "compiere": 3710,
      "compiendo": 3711,
      "paragrafo": 3712,
      "parametri": 3713,
      "conoscer": 3714,
      "marzo2024": 3715,
      "Democratico": 3716,
      "lungotempo": 3717,
      "Atlanten": 3718,
      "Atlantia": 3719,
      "Zafiriana": 3720,
      "assimi": 3721,
      "denz": 3722,
      "denun": 3723,
      "definito": 3724,
      "sinché": 3725,
      "introdu": 3726,
      "limite": 3727,
      "consiglio": 3728,
      "privati": 3729,
      "iniziativa": 3730,
      "ministrazione": 3731,
      "attuali": 3732,
      "attualmente": 3733,
      ".............................": 3734,
      "..............................": 3735,
      "Forza": 3736,
      "Manifesto": 3737,
      "Paragrafo": 3738,
      "iberi": 3739,
      "raggiunse": 3740,
      "raggiungi": 3741,
      "concluse": 3742,
      "concludere": 3743,
      "ordinaria": 3744,
      "picco": 3745,
      "passare": 3746,
      "avvenuto": 3747,
      "derivata": 3748,
      "legislative": 3749,
      "dichiara": 3750,
      "repubblican": 3751,
      "repubblicano": 3752,
      "dedicato": 3753,
      "quintomondiste": 3754,
      "solitamente": 3755,
      "purga": 3756,
      "facendo": 3757,
      "Fondatore": 3758,
      "rinun": 3759,
      "rinno": 3760,
      "ringrazi": 3761,
      "dettaglio": 3762,
      "citate": 3763,
      ".......................": 3764,
      "sospesa": 3765,
      "sospensione": 3766,
      "GiancarloPisapia": 3767,
      "insediato": 3768,
      "caratterizzato": 3769,
      "influente": 3770,
      "sovrana": 3771,
      "Pasqua": 3772,
      "emanare": 3773,
      "emanazione": 3774,
      "malconten": 3775,
      "malgrado": 3776,
      "vinta": 3777,
      "vincitore": 3778,
      "regione": 3779,
      "regolamento": 3780,
      "riceve": 3781,
      "ricevere": 3782,
      "simili": 3783,
      "sorse": 3784,
      "amministrative": 3785,
      "dimostrato": 3786,
      "dimostrare": 3787,
      "continuare": 3788,
      "affidato": 3789,
      "assente": 3790,
      "aragonista": 3791,
      "aggiunse": 3792,
      "condivise": 3793,
      "minima": 3794,
      "colleghi": 3795,
      "Micronazioni": 3796,
      "sviluppando": 3797,
      "sciolto": 3798,
      "sciolta": 3799,
      "spiegare": 3800,
      "garantisce": 3801,
      "RIA": 3802,
      "Ufficio": 3803,
      "Ufficiale": 3804,
      "adozione": 3805,
      "respon": 3806,
      "respinta": 3807,
      "referenziale": 3808,
      "rimase": 3809,
      "campag": 3810,
      "concessa": 3811,
      "archivio": 3812,
      "procedura": 3813,
      "onorificenza": 3814,
      "ereditano": 3815,
      "accolto": 3816,
      "accolta": 3817,
      "applicano": 3818,
      "esistente": 3819,
      "integrata": 3820,
      "affrontato": 3821,
      "affrontare": 3822,
      "brevemente": 3823,
      "CeSLum": 3824,
      "Credito": 3825,
      "Entra": 3826,
      "Pirata": 3827,
      "bilmente": 3828,
      "brogli": 3829,
      "studiare": 3830,
      "rebbero": 3831,
      "..............": 3832,
      "costruzione": 3833,
      "potenziale": 3834,
      "esercita": 3835,
      "sembrava": 3836,
      "ritorno": 3837,
      "coinvolto": 3838,
      "Onorevoli": 3839,
      "borense": 3840,
      "etni": 3841,
      "opposto": 3842,
      "discen": 3843,
      "discre": 3844,
      "riconduci": 3845,
      "rimanendo": 3846,
      "rispettivi": 3847,
      "invito": 3848,
      "cosiddetto": 3849,
      "contestata": 3850,
      "mostrare": 3851,
      "norm": 3852,
      "davanti": 3853,
      "davvero": 3854,
      "parola": 3855,
      "imparato": 3856,
      "pensabile": 3857,
      "divertimento": 3858,
      "abbandonò": 3859,
      "giornalistica": 3860,
      "collaboratore": 3861,
      "collaboratori": 3862,
      "Fondamen": 3863,
      "Fondamenti": 3864,
      "Impero": 3865,
      "Imperonet": 3866,
      "Pubblicato": 3867,
      "diplomatiche": 3868,
      "simboli": 3869,
      "simbolo": 3870,
      "Elendor": 3871,
      "Frattanto": 3872,
      "augura": 3873,
      "valido": 3874,
      "dietro": 3875,
      "riportati": 3876,
      "ragionevole": 3877,
      "rassegn": 3878,
      "micromondo": 3879,
      "documenti": 3880,
      "notizia": 3881,
      "metodo": 3882,
      "famoso": 3883,
      "Concluso": 3884,
      "immagin": 3885,
      "aspira": 3886,
      "esistita": 3887,
      "Cittadinanza": 3888,
      "autogestisce": 3889,
      "economico": 3890,
      "problematiche": 3891,
      "sollevare": 3892,
      "influenzare": 3893,
      "opportuno": 3894,
      "odierne": 3895,
      "Classificare": 3896,
      "Epilogo": 3897,
      "Inizialmente": 3898,
      "backu": 3899,
      "evolute": 3900,
      "flusso": 3901,
      "focali": 3902,
      "genealogico": 3903,
      "monopoli": 3904,
      "obbietti": 3905,
      "schema": 3906,
      "sfide": 3907,
      "rigida": 3908,
      "rivendica": 3909,
      "demografica": 3910,
      "demografiche": 3911,
      "indagine": 3912,
      "tecni": 3913,
      "potrebbe": 3914,
      "coniato": 3915,
      "quantifica": 3916,
      "soluzione": 3917,
      "pienamente": 3918,
      "suggerisce": 3919,
      "preservare": 3920,
      "navigati": 3921,
      "bisogna": 3922,
      "stimoli": 3923,
      "storiografi": 3924,
      "appello": 3925,
      "Qualora": 3926,
      "abbiano": 3927,
      "inefficace": 3928,
      "concepireilmicronazionalismo": 3929,
      "servizio": 3930,
      "mododiconcepireilmicronazionalismo": 3931,
      "ambiguit": 3932,
      "arricchimento": 3933,
      "eccell": 3934,
      "sostenitori": 3935,
      "fruizione": 3936,
      "effetto": 3937,
      "concernente": 3938,
      "Amministrazione": 3939,
      "Festival": 3940,
      "Greco": 3941,
      "Genealogia": 3942,
      "Ideologi": 3943,
      "Mondo": 3944,
      "Sistema": 3945,
      "Sassonia": 3946,
      "azienda": 3947,
      "sterile": 3948,
      "ubicata": 3949,
      "inviola": 3950,
      "cognome": 3951,
      "possedere": 3952,
      "quattro": 3953,
      "massimi": 3954,
      "subentrò": 3955,
      "prestigio": 3956,
      "Regolamento": 3957,
      "pagamento": 3958,
      "bifarmaco": 3959,
      "apprendimento": 3960,
      "Conclusioni": 3961,
      "precedessore": 3962,
      "malcontento": 3963,
      "campagne": 3964,
      "backup": 3965,
      "\".": 3966,
      "%.": 3967,
      ")”": 3968,
      "+,": 3969,
      ",(": 3970,
      "33": 3971,
      "34": 3972,
      "35": 3973,
      "37": 3974,
      "43": 3975,
      "46": 3976,
      "51": 3977,
      "57": 3978,
      "60": 3979,
      "64": 3980,
      "70": 3981,
      "72": 3982,
      "76": 3983,
      "Ag": 3984,
      "Atti": 3985,
      "Abb": 3986,
      "Apri": 3987,
      "App": 3988,
      "Augu": 3989,
      "AMEN": 3990,
      "Aspera": 3991,
      "BO": 3992,
      "Bo": 3993,
      "Ben": 3994,
      "Cere": 3995,
      "CIP": 3996,
      "CIT": 3997,
      "Che": 3998,
      "DL": 3999,
      "Do": 4000,
      "Dra": 4001,
      "Dis": 4002,
      "Dunque": 4003,
      "DEN": 4004,
      "DAMEN": 4005,
      "Esi": 4006,
      "Esiste": 4007,
      "Emble": 4008,
      "ERI": 4009,
      "Esecu": 4010,
      "Ecco": 4011,
      "Effetti": 4012,
      "ELE": 4013,
      "ESI": 4014,
      "FON": 4015,
      "Ferra": 4016,
      "GI": 4017,
      "Ge": 4018,
      "Glo": 4019,
      "Ha": 4020,
      "Ho": 4021,
      "Ier": 4022,
      "Iri": 4023,
      "Identità": 4024,
      "Ivan": 4025,
      "Jus": 4026,
      "Li": 4027,
      "Lib": 4028,
      "ML": 4029,
      "Mu": 4030,
      "Mal": 4031,
      "Meme": 4032,
      "MIN": 4033,
      "MBO": 4034,
      "Ness": 4035,
      "NON": 4036,
      "NCIP": 4037,
      "Ov": 4038,
      "Ora": 4039,
      "Obiettivo": 4040,
      "PR": 4041,
      "Pal": 4042,
      "Ped": 4043,
      "Panleonense": 4044,
      "PDL": 4045,
      "RT": 4046,
      "Ra": 4047,
      "Ris": 4048,
      "Resta": 4049,
      "Rina": 4050,
      "RIT": 4051,
      "Raffa": 4052,
      "SP": 4053,
      "Ser": 4054,
      "Sar": 4055,
      "Sia": 4056,
      "Sap": 4057,
      "Scri": 4058,
      "Sov": 4059,
      "SEN": 4060,
      "TI": 4061,
      "Tro": 4062,
      "Tito": 4063,
      "Testo": 4064,
      "The": 4065,
      "Trec": 4066,
      "Up": 4067,
      "VI": 4068,
      "VII": 4069,
      "VERI": 4070,
      "Wh": 4071,
      "Wha": 4072,
      "Zac": 4073,
      "asi": 4074,
      "aci": 4075,
      "aro": 4076,
      "ame": 4077,
      "asci": 4078,
      "ario": 4079,
      "ampio": 4080,
      "adiLeonia": 4081,
      "assai": 4082,
      "asviluppar": 4083,
      "blo": 4084,
      "buti": 4085,
      "belli": 4086,
      "batten": 4087,
      "cel": 4088,
      "cce": 4089,
      "cera": 4090,
      "ctr": 4091,
      "cani": 4092,
      "cino": 4093,
      "cfr": 4094,
      "cine": 4095,
      "ccò": 4096,
      "cciato": 4097,
      "ctator": 4098,
      "ccessivamente": 4099,
      "dr": 4100,
      "don": 4101,
      "dero": 4102,
      "dentro": 4103,
      "eco": 4104,
      "eil": 4105,
      "eper": 4106,
      "eva": 4107,
      "epi": 4108,
      "evo": 4109,
      "eproprio": 4110,
      "edalle": 4111,
      "eculturali": 4112,
      "etiche": 4113,
      "edizione": 4114,
      "elimin": 4115,
      "elaborato": 4116,
      "fil": 4117,
      "fona": 4118,
      "fessi": 4119,
      "ffredi": 4120,
      "feste": 4121,
      "gr": 4122,
      "gò": 4123,
      "gin": 4124,
      "glo": 4125,
      "gato": 4126,
      "gene": 4127,
      "gendo": 4128,
      "ggetto": 4129,
      "ghe": 4130,
      "gdr": 4131,
      "id": 4132,
      "it": 4133,
      "ian": 4134,
      "ico": 4135,
      "icon": 4136,
      "ibi": 4137,
      "igno": 4138,
      "ieri": 4139,
      "là": 4140,
      "lle": 4141,
      "llan": 4142,
      "lendo": 4143,
      "lcro": 4144,
      "mil": 4145,
      "mpre": 4146,
      "mali": 4147,
      "mpa": 4148,
      "monia": 4149,
      "mpli": 4150,
      "meremo": 4151,
      "nu": 4152,
      "nona": 4153,
      "nanzi": 4154,
      "ota": 4155,
      "oso": 4156,
      "osta": 4157,
      "obbli": 4158,
      "ozza": 4159,
      "ostante": 4160,
      "odio": 4161,
      "oarti": 4162,
      "oggetto": 4163,
      "pon": 4164,
      "ple": 4165,
      "pria": 4166,
      "pene": 4167,
      "ppur": 4168,
      "ppresso": 4169,
      "rlo": 4170,
      "rva": 4171,
      "rdò": 4172,
      "son": 4173,
      "san": 4174,
      "ses": 4175,
      "sato": 4176,
      "sali": 4177,
      "schi": 4178,
      "ssegu": 4179,
      "salmente": 4180,
      "sho": 4181,
      "sport": 4182,
      "sApp": 4183,
      "ton": 4184,
      "tla": 4185,
      "tle": 4186,
      "ttò": 4187,
      "tranno": 4188,
      "trando": 4189,
      "triamo": 4190,
      "tsApp": 4191,
      "ui": 4192,
      "ura": 4193,
      "usa": 4194,
      "urazione": 4195,
      "uteria": 4196,
      "vra": 4197,
      "vale": 4198,
      "vve": 4199,
      "varono": 4200,
      "vanta": 4201,
      "yPal": 4202,
      "zoni": 4203,
      "èda": 4204,
      "éli": 4205,
      "“[..]": 4206,
      "”;": 4207,
      "”),": 4208,
      "”).": 4209,
      "ones": 4210,
      "onale": 4211,
      "......": 4212,
      "ener": 4213,
      "enzi": 4214,
      "entu": 4215,
      "enfa": 4216,
      "entr": 4217,
      "enense": 4218,
      "diti": 4219,
      "dita": 4220,
      "dimen": 4221,
      "digi": 4222,
      "diale": 4223,
      "dità": 4224,
      "disa": 4225,
      "dina": 4226,
      "dichi": 4227,
      "diquesto": 4228,
      "difica": 4229,
      "dicen": 4230,
      "distante": 4231,
      "discri": 4232,
      "divide": 4233,
      "diFreeland": 4234,
      "diunamicronazione": 4235,
      "diSilonia": 4236,
      "dimetter": 4237,
      "distanza": 4238,
      "diCarloCesareOrlando": 4239,
      "dimicronazionalismoleonense": 4240,
      "diGiancarloPisapia": 4241,
      "erla": 4242,
      "ersi": 4243,
      "eria": 4244,
      "eranno": 4245,
      "ervata": 4246,
      "ervati": 4247,
      "tografi": 4248,
      "tomentale": 4249,
      "todiFreeland": 4250,
      "tiene": 4251,
      "tiamo": 4252,
      "tizzazione": 4253,
      "ticò": 4254,
      "tari": 4255,
      "tate": 4256,
      "tavil": 4257,
      "tarsi": 4258,
      "tarie": 4259,
      "tardò": 4260,
      "reci": 4261,
      "remo": 4262,
      "reda": 4263,
      "reale": 4264,
      "repu": 4265,
      "reato": 4266,
      "recu": 4267,
      "resero": 4268,
      "requi": 4269,
      ".........": 4270,
      "..........": 4271,
      "...........": 4272,
      "rila": 4273,
      "rili": 4274,
      "rich": 4275,
      "rido": 4276,
      "rino": 4277,
      "rime": 4278,
      "risa": 4279,
      "rilan": 4280,
      "rizza": 4281,
      "rivol": 4282,
      "rimar": 4283,
      "rieletto": 4284,
      "rifondato": 4285,
      "ripe": 4286,
      "riforme": 4287,
      "riportare": 4288,
      "risol": 4289,
      "riprende": 4290,
      "rifle": 4291,
      "ridotto": 4292,
      "ripresa": 4293,
      "ridurre": 4294,
      "riproporre": 4295,
      "riviste": 4296,
      "risorse": 4297,
      "risollevare": 4298,
      "lacui": 4299,
      "lapropria": 4300,
      "laRepubblic": 4301,
      "lamentare": 4302,
      "dem": 4303,
      "deca": 4304,
      "desti": 4305,
      "decre": 4306,
      "destra": 4307,
      "degn": 4308,
      "decrescita": 4309,
      "demografico": 4310,
      "dettero": 4311,
      "alto": 4312,
      "alpo": 4313,
      "alleg": 4314,
      "alprimo": 4315,
      "albero": 4316,
      "inv": 4317,
      "inun": 4318,
      "indo": 4319,
      "inne": 4320,
      "ingu": 4321,
      "ingiu": 4322,
      "inmodo": 4323,
      "insuccessi": 4324,
      "incostituzionale": 4325,
      "indette": 4326,
      "inesperienza": 4327,
      "insuccesso": 4328,
      "ingre": 4329,
      "inaccetta": 4330,
      "insomma": 4331,
      "instabilità": 4332,
      "invaria": 4333,
      "ingle": 4334,
      "inesistente": 4335,
      "innanzi": 4336,
      "tela": 4337,
      "tesi": 4338,
      "tele": 4339,
      "temi": 4340,
      "tezza": 4341,
      "testata": 4342,
      "tevole": 4343,
      "tezze": 4344,
      "temp": 4345,
      "telli": 4346,
      "teconsuetudini": 4347,
      "anle": 4348,
      "anch": 4349,
      "anda": 4350,
      "anel": 4351,
      "anne": 4352,
      "andato": 4353,
      "anzia": 4354,
      "andate": 4355,
      "anglo": 4356,
      "cogliere": 4357,
      "coscienza": 4358,
      "leve": 4359,
      "leproprie": 4360,
      "lealtà": 4361,
      "lestesse": 4362,
      "lecito": 4363,
      "lice": 4364,
      "lizia": 4365,
      "liamo": 4366,
      "raria": 4367,
      "rapi": 4368,
      "ravvi": 4369,
      "unzione": 4370,
      "unno": 4371,
      "unvero": 4372,
      "ungruppo": 4373,
      "uncerto": 4374,
      "del2018": 4375,
      "ment": 4376,
      "pota": 4377,
      "poche": 4378,
      "popoli": 4379,
      "polare": 4380,
      "post": 4381,
      "potranno": 4382,
      "cas": 4383,
      "cari": 4384,
      "case": 4385,
      "cazione": 4386,
      "camente": 4387,
      "casione": 4388,
      "esu": 4389,
      "esper": 4390,
      "ester": 4391,
      "esono": 4392,
      "espri": 4393,
      "esprima": 4394,
      "estero": 4395,
      "chan": 4396,
      "cherò": 4397,
      "chenon": 4398,
      "civi": 4399,
      "cifica": 4400,
      "ciarsi": 4401,
      "ciporta": 4402,
      "citando": 4403,
      "cificare": 4404,
      "ily": 4405,
      "illa": 4406,
      "ilPrinci": 4407,
      "seggi": 4408,
      "segno": 4409,
      "segn": 4410,
      "seduta": 4411,
      "seppur": 4412,
      "..................": 4413,
      "mira": 4414,
      "mica": 4415,
      "misero": 4416,
      "mirazione": 4417,
      "rotta": 4418,
      "perso": 4419,
      "perce": 4420,
      "perdere": 4421,
      "permise": 4422,
      "perdute": 4423,
      "perdita": 4424,
      "permisero": 4425,
      "conf": 4426,
      "conn": 4427,
      "conuna": 4428,
      "concor": 4429,
      "concorso": 4430,
      "concorr": 4431,
      "condan": 4432,
      "conversa": 4433,
      "condotta": 4434,
      "chequella": 4435,
      "chelaLeonidia": 4436,
      "cheilPrinci": 4437,
      "arò": 4438,
      "arle": 4439,
      "arca": 4440,
      "ardo": 4441,
      "arbi": 4442,
      "dori": 4443,
      "dosi": 4444,
      "dovero": 4445,
      "doversi": 4446,
      "dormi": 4447,
      "momen": 4448,
      "mosse": 4449,
      "momenti": 4450,
      "motiva": 4451,
      "momenta": 4452,
      "mossero": 4453,
      "tuali": 4454,
      "tutt": 4455,
      "lottare": 4456,
      "lofone": 4457,
      "notte": 4458,
      "novizi": 4459,
      "notevole": 4460,
      "quor": 4461,
      "quis": 4462,
      "quarti": 4463,
      "quota": 4464,
      "quilla": 4465,
      "soffri": 4466,
      "somigli": 4467,
      "soppresso": 4468,
      "vito": 4469,
      "viva": 4470,
      "vitto": 4471,
      "visti": 4472,
      "visione": 4473,
      "vitale": 4474,
      "visioni": 4475,
      "viarmi": 4476,
      "vision": 4477,
      "videro": 4478,
      "main": 4479,
      "macrona": 4480,
      "matti": 4481,
      "matura": 4482,
      "macro": 4483,
      "materi": 4484,
      "mapure": 4485,
      "matema": 4486,
      "macch": 4487,
      "magari": 4488,
      "gie": 4489,
      "giro": 4490,
      "gioc": 4491,
      "giunto": 4492,
      "vate": 4493,
      "vava": 4494,
      "vario": 4495,
      "cronaca": 4496,
      "cronazione": 4497,
      "riatti": 4498,
      "riappa": 4499,
      "bbia": 4500,
      "orà": 4501,
      "piac": 4502,
      "piani": 4503,
      "piede": 4504,
      "memi": 4505,
      "sub": 4506,
      "suffici": 4507,
      "sudare": 4508,
      "sussegu": 4509,
      "dellamicronazione": 4510,
      "stamente": 4511,
      "stagram": 4512,
      "stabil": 4513,
      "elen": 4514,
      "proto": 4515,
      "proseguito": 4516,
      "proba": 4517,
      "prolun": 4518,
      "profondire": 4519,
      "profilo": 4520,
      "promossa": 4521,
      "professi": 4522,
      "proibi": 4523,
      "provve": 4524,
      "voli": 4525,
      "vogli": 4526,
      "voglio": 4527,
      "votato": 4528,
      "vostro": 4529,
      "verni": 4530,
      "veramente": 4531,
      "puro": 4532,
      "pubb": 4533,
      "puramente": 4534,
      "Lumenario": 4535,
      "terà": 4536,
      "terò": 4537,
      "terna": 4538,
      "ttor": 4539,
      "entecome": 4540,
      "atore": 4541,
      "onostan": 4542,
      "onorevoli": 4543,
      "onoraria": 4544,
      "iste": 4545,
      "ismi": 4546,
      "isono": 4547,
      "iscri": 4548,
      "issimo": 4549,
      "istle": 4550,
      "unamicronazion": 4551,
      "unacomunità": 4552,
      "unapropria": 4553,
      "fias": 4554,
      "prefi": 4555,
      "prefer": 4556,
      "prettamente": 4557,
      "previsto": 4558,
      "preoccupa": 4559,
      "premier": 4560,
      "prefazione": 4561,
      "previsti": 4562,
      "cele": 4563,
      "ceva": 4564,
      "cedente": 4565,
      "trare": 4566,
      "tradotto": 4567,
      "traccia": 4568,
      "curio": 4569,
      "curando": 4570,
      "curva": 4571,
      "pubblicò": 4572,
      "sacri": 4573,
      "erede": 4574,
      "erelazioni": 4575,
      "Repubb": 4576,
      "zionipolitiche": 4577,
      "zioniorganizzative": 4578,
      "Leon": 4579,
      "siderazioni": 4580,
      "ssima": 4581,
      "ssionato": 4582,
      "ssiamo": 4583,
      "veto": 4584,
      "vede": 4585,
      "vecch": 4586,
      "micronazioneleonense": 4587,
      "comin": 4588,
      "comun": 4589,
      "comma": 4590,
      "compor": 4591,
      "commenti": 4592,
      "compara": 4593,
      "commessi": 4594,
      "commettendo": 4595,
      "privi": 4596,
      "privato": 4597,
      "privata": 4598,
      "prirà": 4599,
      "dure": 4600,
      "ducia": 4601,
      "godono": 4602,
      "IlRegno": 4603,
      "Ilsostan": 4604,
      "sentono": 4605,
      "sentenza": 4606,
      "paura": 4607,
      "nata": 4608,
      "nate": 4609,
      "nazioni": 4610,
      "naturale": 4611,
      "nascon": 4612,
      "navamo": 4613,
      "trovo": 4614,
      "trovano": 4615,
      "trovò": 4616,
      "neonata": 4617,
      "parere": 4618,
      "parallelamente": 4619,
      "parliamo": 4620,
      "comemicronazioneleonense": 4621,
      "tendere": 4622,
      "tennero": 4623,
      "ggiare": 4624,
      "ggiamenti": 4625,
      "stico": 4626,
      "stima": 4627,
      "vendo": 4628,
      "venuto": 4629,
      "fatta": 4630,
      "fasci": 4631,
      "fatte": 4632,
      "facenti": 4633,
      "faceva": 4634,
      "minato": 4635,
      "minazione": 4636,
      "minaccia": 4637,
      "Presid": 4638,
      "Presidenziale": 4639,
      "Prefazione": 4640,
      "Presenta": 4641,
      "Precedente": 4642,
      "20marzo2024": 4643,
      "stor": 4644,
      "storiche": 4645,
      "uori": 4646,
      "uomo": 4647,
      "forse": 4648,
      "formali": 4649,
      "fulcro": 4650,
      "unici": 4651,
      "unitario": 4652,
      "ludiche": 4653,
      "luzioniorganizzative": 4654,
      "stette": 4655,
      "elessero": 4656,
      "tretto": 4657,
      "allar": 4658,
      "allaluce": 4659,
      "scen": 4660,
      "scalpo": 4661,
      "ader": 4662,
      "aduncerto": 4663,
      "culmin": 4664,
      "attirare": 4665,
      "attirando": 4666,
      "accre": 4667,
      "accessi": 4668,
      "gravi": 4669,
      "grave": 4670,
      "grazia": 4671,
      "manca": 4672,
      "mando": 4673,
      "disse": 4674,
      "dispia": 4675,
      "disgui": 4676,
      "disposi": 4677,
      "discapito": 4678,
      "oniamo": 4679,
      "appunto": 4680,
      "chied": 4681,
      "Coloro": 4682,
      "sciamo": 4683,
      "trali": 4684,
      "sonostati": 4685,
      "cittadinidiLeonia": 4686,
      "areil": 4687,
      "Confi": 4688,
      "Contro": 4689,
      "Consegu": 4690,
      "Confron": 4691,
      "Considerazioni": 4692,
      "Quali": 4693,
      "Quindi": 4694,
      "edono": 4695,
      "siasmo": 4696,
      "avvia": 4697,
      "avessi": 4698,
      "avrà": 4699,
      "avversa": 4700,
      "avrebbero": 4701,
      "imma": 4702,
      "imposta": 4703,
      "sullo": 4704,
      "cortezze": 4705,
      "zzata": 4706,
      "ticamente": 4707,
      "volti": 4708,
      "volmente": 4709,
      "volino": 4710,
      "dellemicronazionileonensi": 4711,
      "gelo": 4712,
      "geopolitico": 4713,
      "tant": 4714,
      "tanta": 4715,
      "quell": 4716,
      "intera": 4717,
      "interna": 4718,
      "interagire": 4719,
      "turbo": 4720,
      "partedella": 4721,
      "partediquella": 4722,
      "ulmicronazionalismoleonense": 4723,
      "credi": 4724,
      "crescere": 4725,
      "Capi": 4726,
      "Cambia": 4727,
      "Camera": 4728,
      "trice": 4729,
      "legale": 4730,
      "legati": 4731,
      "legger": 4732,
      "conosciamo": 4733,
      "segue": 4734,
      "seguì": 4735,
      "seguono": 4736,
      "seguendo": 4737,
      "seguire": 4738,
      "seguir": 4739,
      "seguirono": 4740,
      "seguaci": 4741,
      "Indice": 4742,
      "Inchiesta": 4743,
      "Invito": 4744,
      "Instagram": 4745,
      "spunto": 4746,
      "splendo": 4747,
      "Fiducia": 4748,
      "fermando": 4749,
      "endovi": 4750,
      "[…]”": 4751,
      "boccia": 4752,
      "ideali": 4753,
      "tterà": 4754,
      "ciazione": 4755,
      "Permette": 4756,
      "Perlungotempo": 4757,
      "Leonens": 4758,
      "strati": 4759,
      "strada": 4760,
      "comunitario": 4761,
      "comunicati": 4762,
      "fficienza": 4763,
      "decidere": 4764,
      "decisioni": 4765,
      "anchein": 4766,
      "componenti": 4767,
      "componente": 4768,
      "Goffredi": 4769,
      "Governi": 4770,
      "ricopriva": 4771,
      "ricoprì": 4772,
      "ricoprirà": 4773,
      "ministero": 4774,
      "Consigliere": 4775,
      "render": 4776,
      "Ancora": 4777,
      "Angelo": 4778,
      "deremo": 4779,
      "zetta": 4780,
      "ssere": 4781,
      "ssarmi": 4782,
      "periodi": 4783,
      "stanti": 4784,
      "stanno": 4785,
      "stanze": 4786,
      "att": 4787,
      "fredde": 4788,
      "direche": 4789,
      "diretto": 4790,
      "costituito": 4791,
      "costituzionali": 4792,
      "cercano": 4793,
      "cercò": 4794,
      "cercheremo": 4795,
      "dervi": 4796,
      "possiede": 4797,
      "garo": 4798,
      "lumenari": 4799,
      "logico": 4800,
      "alleviarmi": 4801,
      "chiara": 4802,
      "chiamo": 4803,
      "chiave": 4804,
      "chiarezza": 4805,
      "chiamata": 4806,
      "chiameremo": 4807,
      "migliori": 4808,
      "Giugno": 4809,
      "Giulia": 4810,
      "Vivere": 4811,
      "Vitla": 4812,
      "hannoavuto": 4813,
      "approvazione": 4814,
      "censura": 4815,
      "centrale": 4816,
      "piazza": 4817,
      "assenza": 4818,
      "raggru": 4819,
      "giudice": 4820,
      "terminazione": 4821,
      "Decreti": 4822,
      "Determinazione": 4823,
      "buona": 4824,
      "buio": 4825,
      "critico": 4826,
      "criteri": 4827,
      "critiche": 4828,
      "criticò": 4829,
      "dirigente": 4830,
      "proposti": 4831,
      "proposero": 4832,
      "proposito": 4833,
      "................................................................................................................................": 4834,
      "............................................................................................": 4835,
      "..........................................................................................": 4836,
      "storiaha": 4837,
      "politicamente": 4838,
      "esito": 4839,
      "Dictator": 4840,
      "carta": 4841,
      "carsi": 4842,
      "cardine": 4843,
      "gener": 4844,
      "generò": 4845,
      "inevita": 4846,
      "inefficiente": 4847,
      "ideologica": 4848,
      "Alc": 4849,
      "Altre": 4850,
      "Albero": 4851,
      "Altavil": 4852,
      "Alterna": 4853,
      "Alzetta": 4854,
      "eventualmente": 4855,
      "ovviamente": 4856,
      "diverso": 4857,
      "riservata": 4858,
      "ristretto": 4859,
      "definita": 4860,
      "definitiva": 4861,
      "punta": 4862,
      "erire": 4863,
      "presentarono": 4864,
      "Spesso": 4865,
      "Studio": 4866,
      "fragi": 4867,
      "frastrutture": 4868,
      "conceder": 4869,
      "considerano": 4870,
      ".”.": 4871,
      "occhi": 4872,
      "occasione": 4873,
      "entrati": 4874,
      "riconoscono": 4875,
      "organico": 4876,
      "organizz": 4877,
      "organizzare": 4878,
      "fecero": 4879,
      "altremicronazioni": 4880,
      "coraggio": 4881,
      "scrittore": 4882,
      "scrittura": 4883,
      "ultime": 4884,
      "Aragonista": 4885,
      "nominò": 4886,
      "precedenza": 4887,
      "questioni": 4888,
      "Data": 4889,
      "Daily": 4890,
      "Federazione": 4891,
      "ottenuto": 4892,
      "ottenerla": 4893,
      "stò": 4894,
      "stono": 4895,
      "andar": 4896,
      "virtualmente": 4897,
      "strutturali": 4898,
      "gestite": 4899,
      "Solamente": 4900,
      "fattori": 4901,
      "specifico": 4902,
      "benché": 4903,
      "bensì": 4904,
      "fotografi": 4905,
      "ggini": 4906,
      "prendiamo": 4907,
      "prendendo": 4908,
      "complesso": 4909,
      "completare": 4910,
      "complesse": 4911,
      "Ludi": 4912,
      "Lume": 4913,
      "automa": 4914,
      "esperimen": 4915,
      "dovranno": 4916,
      "guardo": 4917,
      "guardare": 4918,
      "proprietario": 4919,
      "personalità": 4920,
      "Ripresa": 4921,
      "Riflessi": 4922,
      "Riguardo": 4923,
      "scelse": 4924,
      "discutono": 4925,
      "afflusso": 4926,
      "affermando": 4927,
      "ammirazione": 4928,
      "ireSilonia": 4929,
      "dimissione": 4930,
      "differenzi": 4931,
      "Sicu": 4932,
      "Sitratta": 4933,
      "svolti": 4934,
      "risultato": 4935,
      "risultare": 4936,
      "risulterebbe": 4937,
      "maggiore": 4938,
      "abbandona": 4939,
      "successivi": 4940,
      "successiva": 4941,
      "successivo": 4942,
      "secondari": 4943,
      "diviso": 4944,
      "divisa": 4945,
      "divieto": 4946,
      "utilizza": 4947,
      "considerava": 4948,
      "considerarela": 4949,
      "Silonidia": 4950,
      "Silenense": 4951,
      "brevi": 4952,
      "scadere": 4953,
      "scacchi": 4954,
      "zzano": 4955,
      "zzarono": 4956,
      "talvolta": 4957,
      "annuncia": 4958,
      "annessioni": 4959,
      "controllo": 4960,
      "quattor": 4961,
      "quiz": 4962,
      "Comple": 4963,
      "crollo": 4964,
      "croll": 4965,
      "false": 4966,
      "falso": 4967,
      "mercato": 4968,
      "spica": 4969,
      "spirito": 4970,
      "spicco": 4971,
      "letterarie": 4972,
      "espan": 4973,
      "esplo": 4974,
      "esponente": 4975,
      "2016": 4976,
      "Accortezze": 4977,
      "Futura": 4978,
      "Poi": 4979,
      "Pochi": 4980,
      "Podcast": 4981,
      "Polizia": 4982,
      "Possiamo": 4983,
      "Storico": 4984,
      "averlo": 4985,
      "averne": 4986,
      "evitare": 4987,
      "evidenti": 4988,
      "oramai": 4989,
      "informata": 4990,
      "informazion": 4991,
      "sopracita": 4992,
      "parlamen": 4993,
      "Vicepresidenza": 4994,
      "rapportidiploma": 4995,
      "richiede": 4996,
      "infran": 4997,
      "cioè": 4998,
      "contrad": 4999,
      "qualità": 5000,
      "formedi": 5001,
      "formeorganizzative": 5002,
      "comprendente": 5003,
      "nominati": 5004,
      "DOMIN": 5005,
      "DOVERI": 5006,
      "assol": 5007,
      "associarsi": 5008,
      "associazione": 5009,
      "beneficio": 5010,
      "rispecchia": 5011,
      "sicuri": 5012,
      "raccom": 5013,
      "raccolti": 5014,
      "raccogliere": 5015,
      "unamicronazioneubicata": 5016,
      "compiuti": 5017,
      "parati": 5018,
      "quellemicronazioniche": 5019,
      "conoscenze": 5020,
      "Siloniae": 5021,
      "assistette": 5022,
      "denaro": 5023,
      "farò": 5024,
      "farla": 5025,
      "revocato": 5026,
      "revocare": 5027,
      "rifiuta": 5028,
      "rifiutare": 5029,
      "definiscono": 5030,
      "sincero": 5031,
      "introdotto": 5032,
      "introdotta": 5033,
      "insiemeimmag": 5034,
      "limitato": 5035,
      "limitazione": 5036,
      "positivamente": 5037,
      "contributi": 5038,
      "sottoline": 5039,
      "sottoscritto": 5040,
      "neoeletto": 5041,
      "iniziata": 5042,
      "personaggio": 5043,
      "attual": 5044,
      "Secondo": 5045,
      "Forse": 5046,
      "Fortuna": 5047,
      "PayPal": 5048,
      "Terzo": 5049,
      "ambasci": 5050,
      "link": 5051,
      "riempi": 5052,
      "simulare": 5053,
      "raggiunti": 5054,
      "raggiungere": 5055,
      "conclusione": 5056,
      "arrivato": 5057,
      "arrivata": 5058,
      "arrivò": 5059,
      "piccolo": 5060,
      "passati": 5061,
      "passando": 5062,
      "passerà": 5063,
      "accettato": 5064,
      "appassionato": 5065,
      "avvengono": 5066,
      "presentiamo": 5067,
      "derivati": 5068,
      "............................................................................................................": 5069,
      "...........................................................................................................": 5070,
      "legislativo": 5071,
      "risultano": 5072,
      "23maggio2020": 5073,
      "PART": 5074,
      "Unioni": 5075,
      "Unitarismo": 5076,
      "bandire": 5077,
      "dichiarare": 5078,
      "dichiarata": 5079,
      "dedicare": 5080,
      "letture": 5081,
      "ratifica": 5082,
      "soltanto": 5083,
      "produzioneletteraria": 5084,
      "purché": 5085,
      "facente": 5086,
      "manif": 5087,
      "fallimenti": 5088,
      "Electr": 5089,
      "Eleuteria": 5090,
      "Fondata": 5091,
      "manovra": 5092,
      "lavori": 5093,
      "incentra": 5094,
      "incentrando": 5095,
      "analizz": 5096,
      "analizzare": 5097,
      "levando": 5098,
      "programmata": 5099,
      "partitocra": 5100,
      "volontaria": 5101,
      "indipendenza": 5102,
      "attenta": 5103,
      "approfondiremo": 5104,
      "Definire": 5105,
      "Definizioni": 5106,
      "riuscirono": 5107,
      "inaugura": 5108,
      "inaugurare": 5109,
      "caratterizzarono": 5110,
      "influenti": 5111,
      "contribuirono": 5112,
      "DINI": 5113,
      "DIRIT": 5114,
      "ITI": 5115,
      "dandosi": 5116,
      "emanato": 5117,
      "emergere": 5118,
      "malissimo": 5119,
      "speranza": 5120,
      "strettamente": 5121,
      "registrano": 5122,
      "regola": 5123,
      "ricetta": 5124,
      "ritengono": 5125,
      "riferirsi": 5126,
      "lasciò": 5127,
      "lasciato": 5128,
      "lasciare": 5129,
      "catalo": 5130,
      "essenziale": 5131,
      "violando": 5132,
      "violazione": 5133,
      "favorevoli": 5134,
      "fondatada": 5135,
      "occup": 5136,
      "riconoscendo": 5137,
      "basati": 5138,
      "basava": 5139,
      "qualsiasimicronazione": 5140,
      "amministrativa": 5141,
      "funzionanti": 5142,
      "dimostrarono": 5143,
      "continuerà": 5144,
      "identitàleonenseera": 5145,
      "agito": 5146,
      "affidate": 5147,
      "assunzione": 5148,
      "fenomen": 5149,
      "italofone": 5150,
      "lontano": 5151,
      "lena": 5152,
      "lentamente": 5153,
      "linee": 5154,
      "salvo": 5155,
      "rilevanza": 5156,
      "rilevanti": 5157,
      "decine": 5158,
      "coinci": 5159,
      "esociale": 5160,
      "esoluzioniorganizzative": 5161,
      "condividere": 5162,
      "sostenevano": 5163,
      "saggiare": 5164,
      "compare": 5165,
      "minime": 5166,
      "distrutta": 5167,
      "collega": 5168,
      "collegata": 5169,
      "Micronazionale": 5170,
      "Micronazionali": 5171,
      "Micronazionalismo": 5172,
      "sviluppano": 5173,
      "piattaforme": 5174,
      "consideriamo": 5175,
      "riconoscimento": 5176,
      "sciolse": 5177,
      "spiega": 5178,
      "spiegh": 5179,
      "lingue": 5180,
      "ostracizzato": 5181,
      "Impe": 5182,
      "Popolare": 5183,
      "Supp": 5184,
      "Supporto": 5185,
      "Successivamente": 5186,
      "ZIONI": 5187,
      "adottato": 5188,
      "offre": 5189,
      "dicalmente": 5190,
      "respinse": 5191,
      "significato": 5192,
      "camera": 5193,
      "archivi": 5194,
      "procedure": 5195,
      "proporzionale": 5196,
      "eredita": 5197,
      "eredità": 5198,
      "applicata": 5199,
      "corretta": 5200,
      "pensieri": 5201,
      "esistere": 5202,
      "socialiche": 5203,
      "organizzati": 5204,
      "lungamente": 5205,
      "lungaggini": 5206,
      "democraticamente": 5207,
      "integrarsi": 5208,
      "autorità": 5209,
      "autorizzazione": 5210,
      "legittima": 5211,
      "favorevole": 5212,
      "Credo": 5213,
      "Enti": 5214,
      "Esteri": 5215,
      "Piuttosto": 5216,
      "aula": 5217,
      "auspica": 5218,
      "aperte": 5219,
      "abitare": 5220,
      "abitanti": 5221,
      "eunapropria": 5222,
      "irrispetto": 5223,
      ".............": 5224,
      "costruire": 5225,
      "potete": 5226,
      "potenzialità": 5227,
      "espressi": 5228,
      "magone": 5229,
      "onorevole": 5230,
      "onorevolmente": 5231,
      "dubbio": 5232,
      "pagina": 5233,
      "facilmente": 5234,
      "accennavamo": 5235,
      "Questedue": 5236,
      "indiretta": 5237,
      "giudizia": 5238,
      "giudicato": 5239,
      "ritornare": 5240,
      "diversamente": 5241,
      "……………………………………………………": 5242,
      "necessariamente": 5243,
      "assolutamente": 5244,
      "ottobre2019": 5245,
      "ottobredel2018": 5246,
      "coinvolti": 5247,
      "coinvolgere": 5248,
      "piattaformasocial": 5249,
      "Gennaio": 5250,
      "Grande": 5251,
      "Note": 5252,
      "Onore": 5253,
      "STATO": 5254,
      "adiLumenaria": 5255,
      "borensi": 5256,
      "etc": 5257,
      "esisteva": 5258,
      "feder": 5259,
      "italiano": 5260,
      "italiana": 5261,
      "opposti": 5262,
      "scuse": 5263,
      "scuole": 5264,
      "sconosci": 5265,
      "scarsa": 5266,
      "scartato": 5267,
      "transizione": 5268,
      "tranquilla": 5269,
      "usato": 5270,
      "realizzazione": 5271,
      "rimanere": 5272,
      "rispettivamente": 5273,
      "desideri": 5274,
      "determinate": 5275,
      "determinati": 5276,
      "incentivare": 5277,
      "cosiddetta": 5278,
      "capitoli": 5279,
      "espulsi": 5280,
      "espulso": 5281,
      "espulsione": 5282,
      "segnalati": 5283,
      "conservato": 5284,
      "norma": 5285,
      "stabilire": 5286,
      "trasfer": 5287,
      "sentimento": 5288,
      "sentimenti": 5289,
      "parole": 5290,
      "tentativi": 5291,
      "storialeonense": 5292,
      "imparare": 5293,
      "pensate": 5294,
      "divertirmi": 5295,
      "integrale": 5296,
      "integrità": 5297,
      "integrino": 5298,
      "consigliate": 5299,
      "simulazionis": 5300,
      "accettano": 5301,
      "occupati": 5302,
      "occupava": 5303,
      "Pubblici": 5304,
      "Approfon": 5305,
      "Approfondire": 5306,
      "Ellena": 5307,
      "aumentare": 5308,
      "attac": 5309,
      "appoggiato": 5310,
      "assetto": 5311,
      "basato": 5312,
      "basarsi": 5313,
      "ottimo": 5314,
      "offrire": 5315,
      "offriva": 5316,
      "punito": 5317,
      "dieci": 5318,
      "lastessacultura": 5319,
      "innova": 5320,
      "innocente": 5321,
      "ragioni": 5322,
      "conferire": 5323,
      "documento": 5324,
      "novello": 5325,
      "novelli": 5326,
      "sostituito": 5327,
      "metodi": 5328,
      "famosi": 5329,
      "fornire": 5330,
      "formarsi": 5331,
      "formarono": 5332,
      "apprezzare": 5333,
      "apprezzò": 5334,
      "Conclusione": 5335,
      "presenzadiun": 5336,
      "assumere": 5337,
      "esistiti": 5338,
      "Cittadini": 5339,
      "economica": 5340,
      "privatezza": 5341,
      "facciamo": 5342,
      "caratterizzata": 5343,
      "accusati": 5344,
      "flessibile": 5345,
      "opportunità": 5346,
      "Aura": 5347,
      "DEI": 5348,
      "DESP": 5349,
      "SIMBO": 5350,
      "TALI": 5351,
      "TADINI": 5352,
      "aggra": 5353,
      "abuso": 5354,
      "aggiornare": 5355,
      "abrogare": 5356,
      "abrogata": 5357,
      "cinamento": 5358,
      "eminente": 5359,
      "eminenti": 5360,
      "filoso": 5361,
      "llata": 5362,
      "osservato": 5363,
      "osservare": 5364,
      "sfiduci": 5365,
      "sfiduciato": 5366,
      "recentemente": 5367,
      "rimosso": 5368,
      "racchiude": 5369,
      "castaborense": 5370,
      "estremo": 5371,
      "estrema": 5372,
      "persegue": 5373,
      "consolidare": 5374,
      "consapevolezza": 5375,
      "dolore": 5376,
      "mediante": 5377,
      "firma": 5378,
      "appartenente": 5379,
      "chiusura": 5380,
      "Quiz": 5381,
      "Arcadiano": 5382,
      "Arcadiani": 5383,
      "competenza": 5384,
      "Microfono": 5385,
      "Diritti": 5386,
      "complessità": 5387,
      "Luminaria": 5388,
      "Luminia": 5389,
      "candidatura": 5390,
      "affaireSilonia": 5391,
      "scioglimento": 5392,
      "Molti": 5393,
      "principio": 5394,
      "ordinamento": 5395,
      "opinione": 5396,
      "opinioni": 5397,
      "emergenti": 5398,
      "emergenza": 5399,
      "ritenendola": 5400,
      "offerti": 5401,
      "danneggiando": 5402,
      "Buongiorno": 5403,
      "proficua": 5404,
      "proficuo": 5405,
      "ANNO": 5406,
      "Affari": 5407,
      "Croce": 5408,
      "Chiedo": 5409,
      "Delresto": 5410,
      "Editore": 5411,
      "Penale": 5412,
      "Pulgaro": 5413,
      "PRINCIP": 5414,
      "Rappresenta": 5415,
      "Tentato": 5416,
      "Verdi": 5417,
      "attesa": 5418,
      "autunno": 5419,
      "aspetta": 5420,
      "aggettivo": 5421,
      "dargli": 5422,
      "evolversi": 5423,
      "europe": 5424,
      "oggettivamente": 5425,
      "pesante": 5426,
      "scher": 5427,
      "sforzi": 5428,
      "dibattito": 5429,
      "divulgazione": 5430,
      "risiede": 5431,
      "rilasciata": 5432,
      "anonimo": 5433,
      "conformità": 5434,
      "consultarsi": 5435,
      "consisteva": 5436,
      "congiurati": 5437,
      "conclusive": 5438,
      "modesto": 5439,
      "daLeoniaedalle": 5440,
      "giunta": 5441,
      "cruciale": 5442,
      "riavvicinamento": 5443,
      "meccanismi": 5444,
      "suddetta": 5445,
      "produttiva": 5446,
      "promuovere": 5447,
      "traifondatori": 5448,
      "parentesi": 5449,
      "familiari": 5450,
      "universalmente": 5451,
      "accompagnato": 5452,
      "graduale": 5453,
      "disponibili": 5454,
      "Quarto": 5455,
      "avviare": 5456,
      "ciascuno": 5457,
      "successe": 5458,
      "Salvadori": 5459,
      "Castaldo": 5460,
      "Marocchi": 5461,
      "candidarono": 5462,
      "progressi": 5463,
      "contrapposti": 5464,
      "denunciò": 5465,
      "introduce": 5466,
      "iberiana": 5467,
      "raggiungimento": 5468,
      "repubblicane": 5469,
      "rinunciare": 5470,
      "rinnovo": 5471,
      "ringraziare": 5472,
      "insediatosi": 5473,
      "responsa": 5474,
      "Entrambi": 5475,
      "etnico": 5476,
      "discreto": 5477,
      "riconducibili": 5478,
      "normalità": 5479,
      "Fondamentali": 5480,
      "augurarvi": 5481,
      "aspirava": 5482,
      "obbiettivo": 5483,
      "tecnica": 5484,
      "storiografiche": 5485,
      "eccellenza": 5486,
      "Ideologie": 5487,
      "inviolabile": 5488,
      "Agorà": 5489,
      "Abbozza": 5490,
      "Boom": 5491,
      "Benati": 5492,
      "Cerebri": 5493,
      "CITTADINI": 5494,
      "Drago": 5495,
      "Discorso": 5496,
      "DENTE": 5497,
      "DAMENTALI": 5498,
      "Esistono": 5499,
      "Emblema": 5500,
      "Esecutivo": 5501,
      "Effettivamente": 5502,
      "ELEZIONI": 5503,
      "ESIDENTE": 5504,
      "FONDAMENTALI": 5505,
      "Ferraro": 5506,
      "Geopolitico": 5507,
      "Gloria": 5508,
      "Iridia": 5509,
      "Libera": 5510,
      "Musi": 5511,
      "Malgrado": 5512,
      "PRESIDENTE": 5513,
      "Radio": 5514,
      "Riservati": 5515,
      "Restaurazione": 5516,
      "Rinascimento": 5517,
      "Raffaele": 5518,
      "Servizi": 5519,
      "Sarà": 5520,
      "SENATO": 5521,
      "Trovo": 5522,
      "TheDaily": 5523,
      "Treccani": 5524,
      "UpL": 5525,
      "Whistle": 5526,
      "WhatsApp": 5527,
      "battendo": 5528,
      "donna": 5529,
      "festeggi": 5530,
      "oartistica": 5531,
      "penetrare": 5532,
      "vantaggio": 5533,
      "élite": 5534,
      "onesulmicronazionalismoleonense": 5535,
      "energie": 5536,
      "entusiasmo": 5537,
      "dimentica": 5538,
      "dichiarò": 5539,
      "dicenne": 5540,
      "discriminazione": 5541,
      "recipro": 5542,
      "reputazione": 5543,
      "requisiti": 5544,
      "rilassarmi": 5545,
      "rilievo": 5546,
      "decretato": 5547,
      "alprimoarticolo": 5548,
      "indoeurope": 5549,
      "ingresso": 5550,
      "inaccettabile": 5551,
      "innanzitutto": 5552,
      "anleonismo": 5553,
      "annettere": 5554,
      "anglofona": 5555,
      "lestessepersone": 5556,
      "rapida": 5557,
      "unveroeproprio": 5558,
      "casetta": 5559,
      "esperanto": 5560,
      "civili": 5561,
      "segnale": 5562,
      "concorrere": 5563,
      "condanna": 5564,
      "chelaLeonidiaè": 5565,
      "cheilPrincipa": 5566,
      "doveroso": 5567,
      "dormito": 5568,
      "momentaneo": 5569,
      "quorum": 5570,
      "quistò": 5571,
      "vittoria": 5572,
      "materie": 5573,
      "sufficienti": 5574,
      "susseguiti": 5575,
      "probabilmente": 5576,
      "fiasco": 5577,
      "preoccupazioni": 5578,
      "tradottosi": 5579,
      "vecchio": 5580,
      "comparativa": 5581,
      "Ilsostantivo": 5582,
      "Precedentemente": 5583,
      "scalpore": 5584,
      "accrescimento": 5585,
      "disguidi": 5586,
      "disposizioni": 5587,
      "Conseguentemente": 5588,
      "Confronto": 5589,
      "avversari": 5590,
      "partediquellacomunitàsociale": 5591,
      "Cambiamento": 5592,
      "splendore": 5593,
      "freddezza": 5594,
      "raggruppa": 5595,
      "Altavilla": 5596,
      "Alternativa": 5597,
      "fotografia": 5598,
      "Riflessionesulmicronazionalismoleonense": 5599,
      "crollò": 5600,
      "sopracitati": 5601,
      "DOMINI": 5602,
      "insiemeimmaginario": 5603,
      "Fortunatamente": 5604,
      "ambasciatore": 5605,
      "PARTITI": 5606,
      "produzioneletterariaoartistica": 5607,
      "Electroni": 5608,
      "DIRITTI": 5609,
      "Approfondimenti": 5610,
      "Approfondiremo": 5611,
      "SIMBOLI": 5612,
      "PRINCIPI": 5613,
      "daLeoniaedallesu": 5614,
      "Abbozzatura": 5615,
      "Whistleblo": 5616
    },
    "merges": [
      [
        ".",
        "."
      ],
      [
        "o",
        "n"
      ],
      [
        "..",
        ".."
      ],
      [
        "e",
        "n"
      ],
      [
        "d",
        "i"
      ],
      [
        "e",
        "r"
      ],
      [
        "t",
        "o"
      ],
      [
        "t",
        "i"
      ],
      [
        "t",
        "a"
      ],
      [
        "r",
        "e"
      ],
      [
        "....",
        "...."
      ],
      [
        "r",
        "i"
      ],
      [
        "l",
        "a"
      ],
      [
        "d",
        "e"
      ],
      [
        "a",
        "l"
      ],
      [
        "s",
        "i"
      ],
      [
        "i",
        "n"
      ],
      [
        "t",
        "e"
      ],
      [
        "a",
        "n"
      ],
      [
        "z",
        "i"
      ],
      [
        "c",
        "o"
      ],
      [
        "l",
        "e"
      ],
      [
        "l",
        "i"
      ],
      [
        "r",
        "a"
      ],
      [
        "u",
        "n"
      ],
      [
        "zi",
        "on"
      ],
      [
        "de",
        "l"
      ],
      [
        "m",
        "en"
      ],
      [
        "p",
        "o"
      ],
      [
        "c",
        "a"
      ],
      [
        "e",
        "s"
      ],
      [
        "c",
        "h"
      ],
      [
        "c",
        "i"
      ],
      [
        "i",
        "l"
      ],
      [
        "s",
        "e"
      ],
      [
        "........",
        "........"
      ],
      [
        "m",
        "i"
      ],
      [
        "r",
        "o"
      ],
      [
        "p",
        "er"
      ],
      [
        "c",
        "on"
      ],
      [
        "ch",
        "e"
      ],
      [
        "a",
        "r"
      ],
      [
        "d",
        "o"
      ],
      [
        "m",
        "o"
      ],
      [
        "zion",
        "e"
      ],
      [
        "t",
        "u"
      ],
      [
        "l",
        "o"
      ],
      [
        "n",
        "o"
      ],
      [
        "q",
        "u"
      ],
      [
        "on",
        "a"
      ],
      [
        "s",
        "o"
      ],
      [
        "v",
        "i"
      ],
      [
        "m",
        "a"
      ],
      [
        "d",
        "a"
      ],
      [
        "g",
        "i"
      ],
      [
        "c",
        "r"
      ],
      [
        "v",
        "a"
      ],
      [
        "cr",
        "ona"
      ],
      [
        "ri",
        "a"
      ],
      [
        "mi",
        "crona"
      ],
      [
        "t",
        "ti"
      ],
      [
        "b",
        "b"
      ],
      [
        "o",
        "r"
      ],
      [
        "u",
        "men"
      ],
      [
        "p",
        "i"
      ],
      [
        "t",
        "ta"
      ],
      [
        "al",
        "e"
      ],
      [
        "m",
        "e"
      ],
      [
        "s",
        "u"
      ],
      [
        "del",
        "la"
      ],
      [
        "s",
        "ta"
      ],
      [
        "e",
        "l"
      ],
      [
        "p",
        "ro"
      ],
      [
        "z",
        "a"
      ],
      [
        "v",
        "o"
      ],
      [
        "v",
        "er"
      ],
      [
        "p",
        "u"
      ],
      [
        "L",
        "umen"
      ],
      [
        "t",
        "er"
      ],
      [
        "t",
        "to"
      ],
      [
        "g",
        "li"
      ],
      [
        "on",
        "en"
      ],
      [
        "a",
        "ria"
      ],
      [
        "en",
        "te"
      ],
      [
        "a",
        "to"
      ],
      [
        "on",
        "o"
      ],
      [
        "i",
        "s"
      ],
      [
        "men",
        "te"
      ],
      [
        "un",
        "a"
      ],
      [
        "f",
        "i"
      ],
      [
        "p",
        "re"
      ],
      [
        "c",
        "e"
      ],
      [
        "n",
        "i"
      ],
      [
        "t",
        "à"
      ],
      [
        "t",
        "ra"
      ],
      [
        "bb",
        "li"
      ],
      [
        "c",
        "u"
      ],
      [
        "Lumen",
        "aria"
      ],
      [
        "pu",
        "bbli"
      ],
      [
        "i",
        "a"
      ],
      [
        "................",
        "................"
      ],
      [
        "s",
        "a"
      ],
      [
        "er",
        "e"
      ],
      [
        "R",
        "e"
      ],
      [
        "zion",
        "i"
      ],
      [
        "n",
        "on"
      ],
      [
        "Re",
        "pubbli"
      ],
      [
        "an",
        "o"
      ],
      [
        "L",
        "e"
      ],
      [
        "si",
        "d"
      ],
      [
        "s",
        "si"
      ],
      [
        "v",
        "e"
      ],
      [
        "microna",
        "zione"
      ],
      [
        "le",
        "onen"
      ],
      [
        "co",
        "m"
      ],
      [
        "Repubbli",
        "ca"
      ],
      [
        "p",
        "ri"
      ],
      [
        "on",
        "e"
      ],
      [
        "d",
        "u"
      ],
      [
        "g",
        "o"
      ],
      [
        "I",
        "l"
      ],
      [
        "al",
        "i"
      ],
      [
        "s",
        "en"
      ],
      [
        "p",
        "a"
      ],
      [
        "n",
        "a"
      ],
      [
        "tta",
        "di"
      ],
      [
        "t",
        "ro"
      ],
      [
        "qu",
        "es"
      ],
      [
        "n",
        "e"
      ],
      [
        "p",
        "ar"
      ],
      [
        "d",
        "al"
      ],
      [
        "b",
        "i"
      ],
      [
        "ci",
        "ttadi"
      ],
      [
        "g",
        "u"
      ],
      [
        "co",
        "me"
      ],
      [
        "L",
        "a"
      ],
      [
        "t",
        "en"
      ],
      [
        "g",
        "gi"
      ],
      [
        "i",
        "o"
      ],
      [
        "s",
        "ti"
      ],
      [
        "v",
        "en"
      ],
      [
        "f",
        "a"
      ],
      [
        "ti",
        "co"
      ],
      [
        "m",
        "in"
      ],
      [
        "P",
        "re"
      ],
      [
        "2",
        "0"
      ],
      [
        "s",
        "to"
      ],
      [
        "sid",
        "ente"
      ],
      [
        "u",
        "o"
      ],
      [
        "n",
        "el"
      ],
      [
        "e",
        "tti"
      ],
      [
        "er",
        "a"
      ],
      [
        "la",
        "n"
      ],
      [
        "f",
        "in"
      ],
      [
        "p",
        "po"
      ],
      [
        "f",
        "or"
      ],
      [
        "pi",
        "ù"
      ],
      [
        "S",
        "en"
      ],
      [
        "Sen",
        "ato"
      ],
      [
        "leonen",
        "se"
      ],
      [
        "f",
        "u"
      ],
      [
        "Pre",
        "sidente"
      ],
      [
        "un",
        "i"
      ],
      [
        "r",
        "an"
      ],
      [
        "l",
        "u"
      ],
      [
        "de",
        "i"
      ],
      [
        "tu",
        "ra"
      ],
      [
        "G",
        "i"
      ],
      [
        "di",
        "a"
      ],
      [
        "c",
        "es"
      ],
      [
        "on",
        "i"
      ],
      [
        "A",
        "r"
      ],
      [
        "s",
        "te"
      ],
      [
        "er",
        "o"
      ],
      [
        "men",
        "to"
      ],
      [
        "e",
        "le"
      ],
      [
        "ver",
        "no"
      ],
      [
        "t",
        "re"
      ],
      [
        "microna",
        "zioni"
      ],
      [
        "al",
        "la"
      ],
      [
        "s",
        "c"
      ],
      [
        "gli",
        "o"
      ],
      [
        "m",
        "b"
      ],
      [
        "ta",
        "to"
      ],
      [
        "…",
        "…"
      ],
      [
        "a",
        "d"
      ],
      [
        "Z",
        "an"
      ],
      [
        "po",
        "li"
      ],
      [
        "cu",
        "l"
      ],
      [
        "20",
        "2"
      ],
      [
        "a",
        "tti"
      ],
      [
        "a",
        "c"
      ],
      [
        "g",
        "ra"
      ],
      [
        "m",
        "an"
      ],
      [
        "di",
        "s"
      ],
      [
        "po",
        "r"
      ],
      [
        "h",
        "a"
      ],
      [
        "n",
        "uo"
      ],
      [
        "on",
        "ia"
      ],
      [
        "a",
        "p"
      ],
      [
        "ch",
        "i"
      ],
      [
        "C",
        "o"
      ],
      [
        "s",
        "ci"
      ],
      [
        "t",
        "r"
      ],
      [
        "del",
        "l"
      ],
      [
        "sti",
        "tu"
      ],
      [
        "Zan",
        "etti"
      ],
      [
        "f",
        "on"
      ],
      [
        "s",
        "ono"
      ],
      [
        "su",
        "o"
      ],
      [
        "cittadi",
        "ni"
      ],
      [
        "a",
        "re"
      ],
      [
        "C",
        "on"
      ],
      [
        "Q",
        "u"
      ],
      [
        "e",
        "d"
      ],
      [
        "an",
        "do"
      ],
      [
        "s",
        "so"
      ],
      [
        "si",
        "a"
      ],
      [
        "a",
        "v"
      ],
      [
        "i",
        "m"
      ],
      [
        "t",
        "te"
      ],
      [
        "ri",
        "o"
      ],
      [
        "su",
        "l"
      ],
      [
        "co",
        "r"
      ],
      [
        "ar",
        "en"
      ],
      [
        "z",
        "za"
      ],
      [
        "ti",
        "ca"
      ],
      [
        "vo",
        "l"
      ],
      [
        "del",
        "le"
      ],
      [
        "es",
        "s"
      ],
      [
        "g",
        "e"
      ],
      [
        "en",
        "ti"
      ],
      [
        "ta",
        "n"
      ],
      [
        "ques",
        "to"
      ],
      [
        "tico",
        "lo"
      ],
      [
        "qu",
        "el"
      ],
      [
        "in",
        "ter"
      ],
      [
        "tu",
        "r"
      ],
      [
        "par",
        "te"
      ],
      [
        "microna",
        "zion"
      ],
      [
        "u",
        "l"
      ],
      [
        "c",
        "re"
      ],
      [
        "for",
        "ma"
      ],
      [
        "da",
        "to"
      ],
      [
        "lan",
        "do"
      ],
      [
        "en",
        "za"
      ],
      [
        "C",
        "a"
      ],
      [
        "O",
        "r"
      ],
      [
        "en",
        "e"
      ],
      [
        "leonen",
        "si"
      ],
      [
        "go",
        "verno"
      ],
      [
        "t",
        "ri"
      ],
      [
        "f",
        "fi"
      ],
      [
        "le",
        "g"
      ],
      [
        "con",
        "o"
      ],
      [
        "is",
        "ti"
      ],
      [
        "se",
        "gu"
      ],
      [
        "I",
        "n"
      ],
      [
        "atti",
        "vi"
      ],
      [
        "u",
        "to"
      ],
      [
        "ta",
        "re"
      ],
      [
        "an",
        "za"
      ],
      [
        "do",
        "po"
      ],
      [
        "sta",
        "to"
      ],
      [
        "cu",
        "i"
      ],
      [
        "Or",
        "lando"
      ],
      [
        "s",
        "se"
      ],
      [
        "pre",
        "sen"
      ],
      [
        "s",
        "p"
      ],
      [
        "an",
        "i"
      ],
      [
        "ch",
        "é"
      ],
      [
        "F",
        "i"
      ],
      [
        "zi",
        "a"
      ],
      [
        "Ar",
        "ticolo"
      ],
      [
        "f",
        "er"
      ],
      [
        "en",
        "do"
      ],
      [
        "gi",
        "or"
      ],
      [
        "Le",
        "onia"
      ],
      [
        "attivi",
        "tà"
      ],
      [
        "m",
        "pi"
      ],
      [
        "co",
        "l"
      ],
      [
        "I",
        "I"
      ],
      [
        "m",
        "on"
      ],
      [
        "…",
        "]"
      ],
      [
        "al",
        "l"
      ],
      [
        "li",
        "ppo"
      ],
      [
        "ess",
        "ere"
      ],
      [
        "Fi",
        "lippo"
      ],
      [
        "tu",
        "tti"
      ],
      [
        "[",
        "…]"
      ],
      [
        "b",
        "o"
      ],
      [
        "in",
        "i"
      ],
      [
        "an",
        "no"
      ],
      [
        "un",
        "o"
      ],
      [
        "fi",
        "ca"
      ],
      [
        "du",
        "e"
      ],
      [
        "cul",
        "tur"
      ],
      [
        "Qu",
        "es"
      ],
      [
        "i",
        "de"
      ],
      [
        "d",
        "ano"
      ],
      [
        "i",
        "to"
      ],
      [
        "t",
        "ter"
      ],
      [
        "in",
        "o"
      ],
      [
        "ci",
        "a"
      ],
      [
        "in",
        "di"
      ],
      [
        "P",
        "er"
      ],
      [
        "s",
        "sa"
      ],
      [
        "s",
        "tr"
      ],
      [
        "se",
        "m"
      ],
      [
        "Le",
        "onen"
      ],
      [
        "nel",
        "la"
      ],
      [
        "Gi",
        "or"
      ],
      [
        "s",
        "tra"
      ],
      [
        "com",
        "uni"
      ],
      [
        "ggi",
        "o"
      ],
      [
        "Ar",
        "ca"
      ],
      [
        "ffi",
        "ci"
      ],
      [
        "u",
        "m"
      ],
      [
        "v",
        "il"
      ],
      [
        "ona",
        "to"
      ],
      [
        "su",
        "a"
      ],
      [
        "Gior",
        "dano"
      ],
      [
        "de",
        "ci"
      ],
      [
        "an",
        "che"
      ],
      [
        "del",
        "lo"
      ],
      [
        "es",
        "e"
      ],
      [
        "va",
        "to"
      ],
      [
        "com",
        "p"
      ],
      [
        "G",
        "o"
      ],
      [
        "a",
        "zione"
      ],
      [
        "c",
        "la"
      ],
      [
        "c",
        "an"
      ],
      [
        "p",
        "en"
      ],
      [
        "ri",
        "co"
      ],
      [
        "pri",
        "ma"
      ],
      [
        "min",
        "is"
      ],
      [
        "Con",
        "si"
      ],
      [
        "vil",
        "u"
      ],
      [
        "r",
        "en"
      ],
      [
        "……",
        "……"
      ],
      [
        "Arca",
        "dia"
      ],
      [
        "A",
        "n"
      ],
      [
        "c",
        "ra"
      ],
      [
        "al",
        "mente"
      ],
      [
        "si",
        "one"
      ],
      [
        "an",
        "ti"
      ],
      [
        "va",
        "mente"
      ],
      [
        "pro",
        "pri"
      ],
      [
        "a",
        "bb"
      ],
      [
        "d",
        "ere"
      ],
      [
        "g",
        "ni"
      ],
      [
        "z",
        "e"
      ],
      [
        "sta",
        "ta"
      ],
      [
        "sen",
        "ato"
      ],
      [
        "ques",
        "ta"
      ],
      [
        "fin",
        "i"
      ],
      [
        "s",
        "s"
      ],
      [
        "zion",
        "ale"
      ],
      [
        "per",
        "s"
      ],
      [
        "per",
        "io"
      ],
      [
        "sta",
        "n"
      ],
      [
        "Lumen",
        "aren"
      ],
      [
        "fon",
        "da"
      ],
      [
        "Leonen",
        "se"
      ],
      [
        "a",
        "t"
      ],
      [
        "f",
        "re"
      ],
      [
        "di",
        "re"
      ],
      [
        "co",
        "stitu"
      ],
      [
        "vi",
        "a"
      ],
      [
        "bi",
        "le"
      ],
      [
        "Consi",
        "glio"
      ],
      [
        "D",
        "onato"
      ],
      [
        "c",
        "er"
      ],
      [
        "n",
        "anza"
      ],
      [
        "mo",
        "l"
      ],
      [
        "Go",
        "verno"
      ],
      [
        "M",
        "i"
      ],
      [
        "d",
        "er"
      ],
      [
        "r",
        "ono"
      ],
      [
        "po",
        "ssi"
      ],
      [
        "oni",
        "dia"
      ],
      [
        "g",
        "a"
      ],
      [
        "l",
        "umen"
      ],
      [
        "m",
        "ar"
      ],
      [
        "s",
        "vilu"
      ],
      [
        "en",
        "tro"
      ],
      [
        "tu",
        "di"
      ],
      [
        "is",
        "mo"
      ],
      [
        "a",
        "ve"
      ],
      [
        "e",
        "lan"
      ],
      [
        "m",
        "po"
      ],
      [
        "lo",
        "gi"
      ],
      [
        "Le",
        "onidia"
      ],
      [
        "u",
        "t"
      ],
      [
        "..",
        "."
      ],
      [
        "re",
        "v"
      ],
      [
        "es",
        "ta"
      ],
      [
        "qu",
        "ale"
      ],
      [
        "su",
        "c"
      ],
      [
        "bi",
        "li"
      ],
      [
        "cittadi",
        "nanza"
      ],
      [
        "fin",
        "e"
      ],
      [
        "cultur",
        "ale"
      ],
      [
        "S",
        "tato"
      ],
      [
        "f",
        "r"
      ],
      [
        "m",
        "bi"
      ],
      [
        "si",
        "ste"
      ],
      [
        "za",
        "rev"
      ],
      [
        "dal",
        "la"
      ],
      [
        "La",
        "zarev"
      ],
      [
        "c",
        "lu"
      ],
      [
        "g",
        "na"
      ],
      [
        "u",
        "ti"
      ],
      [
        "se",
        "con"
      ],
      [
        "al",
        "le"
      ],
      [
        "po",
        "i"
      ],
      [
        "ch",
        "ia"
      ],
      [
        "mi",
        "glio"
      ],
      [
        "ma",
        "i"
      ],
      [
        "bb",
        "e"
      ],
      [
        "pi",
        "to"
      ],
      [
        "cittadi",
        "no"
      ],
      [
        "ven",
        "ne"
      ],
      [
        "Gi",
        "u"
      ],
      [
        "ele",
        "zioni"
      ],
      [
        "cul",
        "tura"
      ],
      [
        "cla",
        "ssi"
      ],
      [
        "R",
        "F"
      ],
      [
        "V",
        "i"
      ],
      [
        "h",
        "o"
      ],
      [
        "h",
        "anno"
      ],
      [
        "o",
        "logi"
      ],
      [
        "”",
        ","
      ],
      [
        "la",
        "re"
      ],
      [
        "te",
        "mpo"
      ],
      [
        "an",
        "ni"
      ],
      [
        "ap",
        "pro"
      ],
      [
        "c",
        "en"
      ],
      [
        "ti",
        "ve"
      ],
      [
        "re",
        "a"
      ],
      [
        "zi",
        "o"
      ],
      [
        "mi",
        "ssi"
      ],
      [
        "mo",
        "cra"
      ],
      [
        "qu",
        "e"
      ],
      [
        "pi",
        "a"
      ],
      [
        "comuni",
        "tà"
      ],
      [
        "perio",
        "do"
      ],
      [
        "lumen",
        "aren"
      ],
      [
        "a",
        "s"
      ],
      [
        "ra",
        "g"
      ],
      [
        "men",
        "ti"
      ],
      [
        "gi",
        "u"
      ],
      [
        "ver",
        "e"
      ],
      [
        "ter",
        "min"
      ],
      [
        "isti",
        "tu"
      ],
      [
        "RF",
        "L"
      ],
      [
        "D",
        "e"
      ],
      [
        "S",
        "e"
      ],
      [
        "S",
        "al"
      ],
      [
        "b",
        "u"
      ],
      [
        "c",
        "ri"
      ],
      [
        "r",
        "uo"
      ],
      [
        "di",
        "ri"
      ],
      [
        "ti",
        "to"
      ],
      [
        "ri",
        "to"
      ],
      [
        "li",
        "o"
      ],
      [
        "pro",
        "po"
      ],
      [
        "................................",
        "................................"
      ],
      [
        "sto",
        "ria"
      ],
      [
        "poli",
        "tica"
      ],
      [
        "nuo",
        "vo"
      ],
      [
        "mon",
        "do"
      ],
      [
        "ave",
        "va"
      ],
      [
        "e",
        "si"
      ],
      [
        "g",
        "no"
      ],
      [
        "g",
        "ran"
      ],
      [
        "o",
        "per"
      ],
      [
        "p",
        "li"
      ],
      [
        "s",
        "co"
      ],
      [
        "z",
        "o"
      ],
      [
        "ta",
        "le"
      ],
      [
        "men",
        "o"
      ],
      [
        "es",
        "so"
      ],
      [
        "per",
        "ò"
      ],
      [
        "el",
        "lo"
      ],
      [
        "D",
        "i"
      ],
      [
        "M",
        "ar"
      ],
      [
        "d",
        "ente"
      ],
      [
        "s",
        "ce"
      ],
      [
        "ti",
        "va"
      ],
      [
        "al",
        "c"
      ],
      [
        "ca",
        "r"
      ],
      [
        "tu",
        "tto"
      ],
      [
        "pu",
        "ò"
      ],
      [
        "fi",
        "du"
      ],
      [
        "ste",
        "sso"
      ],
      [
        "Co",
        "stitu"
      ],
      [
        "C",
        "entro"
      ],
      [
        "g",
        "en"
      ],
      [
        "ti",
        "vo"
      ],
      [
        "in",
        "e"
      ],
      [
        "ar",
        "lo"
      ],
      [
        "202",
        "3"
      ],
      [
        "cor",
        "so"
      ],
      [
        "ide",
        "ologi"
      ],
      [
        "sem",
        "pre"
      ],
      [
        "A",
        "l"
      ],
      [
        "M",
        "in"
      ],
      [
        "e",
        "ven"
      ],
      [
        "o",
        "v"
      ],
      [
        "s",
        "ì"
      ],
      [
        "di",
        "ver"
      ],
      [
        "ri",
        "ca"
      ],
      [
        "or",
        "g"
      ],
      [
        "ces",
        "si"
      ],
      [
        "ele",
        "tto"
      ],
      [
        "mb",
        "re"
      ],
      [
        "vato",
        "re"
      ],
      [
        "An",
        "d"
      ],
      [
        "Sal",
        "vatore"
      ],
      [
        "a",
        "i"
      ],
      [
        "t",
        "ten"
      ],
      [
        "ta",
        "li"
      ],
      [
        "ri",
        "s"
      ],
      [
        "de",
        "fini"
      ],
      [
        "so",
        "ci"
      ],
      [
        "ver",
        "o"
      ],
      [
        "ne",
        "i"
      ],
      [
        "ces",
        "so"
      ],
      [
        "leg",
        "ge"
      ],
      [
        "Min",
        "is"
      ],
      [
        "And",
        "rea"
      ],
      [
        "g",
        "es"
      ],
      [
        "o",
        "gni"
      ],
      [
        "p",
        "ra"
      ],
      [
        "p",
        "un"
      ],
      [
        "di",
        "f"
      ],
      [
        "er",
        "i"
      ],
      [
        "er",
        "ale"
      ],
      [
        "es",
        "sa"
      ],
      [
        "per",
        "i"
      ],
      [
        "lo",
        "ro"
      ],
      [
        "fa",
        "tti"
      ],
      [
        "ppo",
        "r"
      ],
      [
        "poli",
        "ti"
      ],
      [
        "segu",
        "ito"
      ],
      [
        "presen",
        "ta"
      ],
      [
        "S",
        "p"
      ],
      [
        "S",
        "tudi"
      ],
      [
        "f",
        "ra"
      ],
      [
        "l",
        "tre"
      ],
      [
        "m",
        "ma"
      ],
      [
        "p",
        "p"
      ],
      [
        "ra",
        "to"
      ],
      [
        "................",
        "........"
      ],
      [
        "mi",
        "a"
      ],
      [
        "con",
        "ce"
      ],
      [
        "con",
        "sid"
      ],
      [
        "vi",
        "ta"
      ],
      [
        "vi",
        "ene"
      ],
      [
        "pro",
        "p"
      ],
      [
        "sen",
        "za"
      ],
      [
        "Gi",
        "an"
      ],
      [
        "mpi",
        "o"
      ],
      [
        "stan",
        "te"
      ],
      [
        "fr",
        "on"
      ],
      [
        "fidu",
        "cia"
      ],
      [
        ".",
        "”"
      ],
      [
        "C",
        "es"
      ],
      [
        "T",
        "u"
      ],
      [
        "o",
        "c"
      ],
      [
        "en",
        "tra"
      ],
      [
        "ri",
        "cono"
      ],
      [
        "es",
        "si"
      ],
      [
        "tta",
        "via"
      ],
      [
        "dal",
        "l"
      ],
      [
        "fu",
        "rono"
      ],
      [
        "202",
        "2"
      ],
      [
        "senato",
        "ri"
      ],
      [
        "N",
        "on"
      ],
      [
        "V",
        "al"
      ],
      [
        "b",
        "a"
      ],
      [
        "k",
        "o"
      ],
      [
        "r",
        "ko"
      ],
      [
        "u",
        "ffici"
      ],
      [
        "ta",
        "mente"
      ],
      [
        "qu",
        "al"
      ],
      [
        "ter",
        "rito"
      ],
      [
        "Ca",
        "sta"
      ],
      [
        "gior",
        "ni"
      ],
      [
        "Ques",
        "to"
      ],
      [
        "Mi",
        "rko"
      ],
      [
        "siste",
        "ma"
      ],
      [
        "org",
        "ani"
      ],
      [
        "Ces",
        "are"
      ],
      [
        "C",
        "arlo"
      ],
      [
        "F",
        "ran"
      ],
      [
        "d",
        "enti"
      ],
      [
        "f",
        "e"
      ],
      [
        "r",
        "u"
      ],
      [
        "v",
        "ano"
      ],
      [
        "er",
        "ano"
      ],
      [
        "er",
        "io"
      ],
      [
        "de",
        "gli"
      ],
      [
        "al",
        "tre"
      ],
      [
        "co",
        "ra"
      ],
      [
        "un",
        "que"
      ],
      [
        "va",
        "ri"
      ],
      [
        "ter",
        "e"
      ],
      [
        "ces",
        "co"
      ],
      [
        "sc",
        "ri"
      ],
      [
        "por",
        "tan"
      ],
      [
        "suo",
        "i"
      ],
      [
        "vol",
        "ta"
      ],
      [
        "micronazion",
        "ale"
      ],
      [
        "ul",
        "ti"
      ],
      [
        "deci",
        "se"
      ],
      [
        "ese",
        "mpio"
      ],
      [
        "mol",
        "to"
      ],
      [
        "pito",
        "lo"
      ],
      [
        "termin",
        "e"
      ],
      [
        "Fran",
        "cesco"
      ],
      [
        "A",
        "rag"
      ],
      [
        "M",
        "a"
      ],
      [
        "S",
        "im"
      ],
      [
        "n",
        "um"
      ],
      [
        "s",
        "ero"
      ],
      [
        "no",
        "min"
      ],
      [
        "qu",
        "ando"
      ],
      [
        "pre",
        "ce"
      ],
      [
        "tra",
        "tta"
      ],
      [
        "go",
        "ver"
      ],
      [
        "ques",
        "ti"
      ],
      [
        "par",
        "ti"
      ],
      [
        "sul",
        "la"
      ],
      [
        "Lumenaren",
        "si"
      ],
      [
        "ruo",
        "lo"
      ],
      [
        "Val",
        "erio"
      ],
      [
        ")",
        ","
      ],
      [
        "D",
        "a"
      ],
      [
        "F",
        "ed"
      ],
      [
        "S",
        "co"
      ],
      [
        "o",
        "tten"
      ],
      [
        "p",
        "pa"
      ],
      [
        "r",
        "tu"
      ],
      [
        "s",
        "t"
      ],
      [
        "v",
        "al"
      ],
      [
        "ri",
        "u"
      ],
      [
        "in",
        "a"
      ],
      [
        "an",
        "d"
      ],
      [
        "li",
        "b"
      ],
      [
        "ca",
        "di"
      ],
      [
        "mo",
        "dello"
      ],
      [
        "vi",
        "rtu"
      ],
      [
        "man",
        "dato"
      ],
      [
        "dis",
        "mo"
      ],
      [
        "micronazion",
        "al"
      ],
      [
        "str",
        "ut"
      ],
      [
        "Costitu",
        "zione"
      ],
      [
        "ges",
        "ti"
      ],
      [
        "prop",
        "ria"
      ],
      [
        "S",
        "o"
      ],
      [
        "a",
        "mi"
      ],
      [
        "l",
        "un"
      ],
      [
        "re",
        "bbe"
      ],
      [
        "de",
        "mocra"
      ],
      [
        "in",
        "to"
      ],
      [
        "in",
        "te"
      ],
      [
        "ca",
        "to"
      ],
      [
        "mo",
        "di"
      ],
      [
        "no",
        "me"
      ],
      [
        "fa",
        "tto"
      ],
      [
        "por",
        "tato"
      ],
      [
        "inter",
        "no"
      ],
      [
        "parte",
        "ci"
      ],
      [
        "sp",
        "e"
      ],
      [
        "bo",
        "ro"
      ],
      [
        "Giu",
        "lio"
      ],
      [
        "Sim",
        "one"
      ],
      [
        "num",
        "ero"
      ],
      [
        "C",
        "i"
      ],
      [
        "b",
        "en"
      ],
      [
        "f",
        "o"
      ],
      [
        "g",
        "g"
      ],
      [
        "o",
        "po"
      ],
      [
        "p",
        "ren"
      ],
      [
        "per",
        "ché"
      ],
      [
        "vi",
        "de"
      ],
      [
        "ono",
        "stante"
      ],
      [
        "fin",
        "o"
      ],
      [
        "fon",
        "dato"
      ],
      [
        "im",
        "portan"
      ],
      [
        "tan",
        "to"
      ],
      [
        "quel",
        "la"
      ],
      [
        "Ca",
        "pitolo"
      ],
      [
        "comp",
        "le"
      ],
      [
        "gna",
        "miglio"
      ],
      [
        "diri",
        "tto"
      ],
      [
        "Casta",
        "boro"
      ],
      [
        "Sco",
        "gnamiglio"
      ],
      [
        ")",
        "."
      ],
      [
        "F",
        "re"
      ],
      [
        "L",
        "u"
      ],
      [
        "P",
        "d"
      ],
      [
        "a",
        "uto"
      ],
      [
        "g",
        "ru"
      ],
      [
        "s",
        "er"
      ],
      [
        "di",
        "ven"
      ],
      [
        "in",
        "ten"
      ],
      [
        "an",
        "cora"
      ],
      [
        "ra",
        "p"
      ],
      [
        "es",
        "peri"
      ],
      [
        "do",
        "v"
      ],
      [
        "so",
        "lo"
      ],
      [
        "vo",
        "le"
      ],
      [
        "pre",
        "sidente"
      ],
      [
        "gu",
        "ar"
      ],
      [
        "fa",
        "re"
      ],
      [
        "poli",
        "tico"
      ],
      [
        "ac",
        "ca"
      ],
      [
        "sci",
        "ta"
      ],
      [
        "can",
        "di"
      ],
      [
        "propri",
        "e"
      ],
      [
        "pers",
        "on"
      ],
      [
        "Fed",
        "erale"
      ],
      [
        "Fre",
        "elan"
      ],
      [
        "R",
        "i"
      ],
      [
        "R",
        "u"
      ],
      [
        "a",
        "mo"
      ],
      [
        "u",
        "gu"
      ],
      [
        "al",
        "tà"
      ],
      [
        "co",
        "sa"
      ],
      [
        "le",
        "gi"
      ],
      [
        "ci",
        "ò"
      ],
      [
        "per",
        "to"
      ],
      [
        "tu",
        "tte"
      ],
      [
        "so",
        "la"
      ],
      [
        "da",
        "i"
      ],
      [
        "va",
        "re"
      ],
      [
        "pri",
        "mo"
      ],
      [
        "ggi",
        "un"
      ],
      [
        "ste",
        "ssa"
      ],
      [
        "sc",
        "el"
      ],
      [
        "dis",
        "cu"
      ],
      [
        "sem",
        "pli"
      ],
      [
        "…………",
        "…………"
      ],
      [
        "Lumenaren",
        "se"
      ],
      [
        "even",
        "to"
      ],
      [
        "Tu",
        "ttavia"
      ],
      [
        "Ru",
        "b"
      ],
      [
        "1",
        "1"
      ],
      [
        "C",
        "ul"
      ],
      [
        "I",
        "P"
      ],
      [
        "T",
        "o"
      ],
      [
        "V",
        "o"
      ],
      [
        "a",
        "f"
      ],
      [
        "m",
        "u"
      ],
      [
        "n",
        "ci"
      ],
      [
        "p",
        "e"
      ],
      [
        "”",
        "."
      ],
      [
        "in",
        "se"
      ],
      [
        "co",
        "sì"
      ],
      [
        "ra",
        "ppor"
      ],
      [
        "po",
        "po"
      ],
      [
        "ar",
        "cadi"
      ],
      [
        "par",
        "tico"
      ],
      [
        "202",
        "4"
      ],
      [
        "minis",
        "tro"
      ],
      [
        "fre",
        "elan"
      ],
      [
        "secon",
        "do"
      ],
      [
        "lumenaren",
        "se"
      ],
      [
        "1",
        "4"
      ],
      [
        "Z",
        "acca"
      ],
      [
        "a",
        "m"
      ],
      [
        "e",
        "me"
      ],
      [
        "i",
        "re"
      ],
      [
        "s",
        "ar"
      ],
      [
        "z",
        "ze"
      ],
      [
        "di",
        "missi"
      ],
      [
        "re",
        "altà"
      ],
      [
        "in",
        "fatti"
      ],
      [
        "an",
        "to"
      ],
      [
        "tto",
        "re"
      ],
      [
        "ia",
        "mo"
      ],
      [
        "ne",
        "ces"
      ],
      [
        "ggi",
        "or"
      ],
      [
        "sci",
        "o"
      ],
      [
        "quel",
        "lo"
      ],
      [
        "clu",
        "si"
      ],
      [
        "gran",
        "de"
      ],
      [
        "dif",
        "fer"
      ],
      [
        "strut",
        "tura"
      ],
      [
        "Zacca",
        "ria"
      ],
      [
        "1",
        "0"
      ],
      [
        "M",
        "o"
      ],
      [
        "P",
        "ri"
      ],
      [
        "S",
        "i"
      ],
      [
        "a",
        "pri"
      ],
      [
        "b",
        "ia"
      ],
      [
        "i",
        "va"
      ],
      [
        "o",
        "ri"
      ],
      [
        "o",
        "ggi"
      ],
      [
        "s",
        "vol"
      ],
      [
        "s",
        "fiducia"
      ],
      [
        "en",
        "o"
      ],
      [
        "di",
        "ce"
      ],
      [
        "ri",
        "sul"
      ],
      [
        "li",
        "v"
      ],
      [
        "un",
        "e"
      ],
      [
        "con",
        "ti"
      ],
      [
        "mo",
        "do"
      ],
      [
        "ma",
        "ggio"
      ],
      [
        "gi",
        "à"
      ],
      [
        "ver",
        "so"
      ],
      [
        "du",
        "zione"
      ],
      [
        "lu",
        "i"
      ],
      [
        "Co",
        "me"
      ],
      [
        "micronazion",
        "ali"
      ],
      [
        "gior",
        "no"
      ],
      [
        "propri",
        "o"
      ],
      [
        "abb",
        "and"
      ],
      [
        "svilu",
        "ppa"
      ],
      [
        "suc",
        "cessi"
      ],
      [
        "secon",
        "da"
      ],
      [
        "ov",
        "vero"
      ],
      [
        "pun",
        "to"
      ],
      [
        "Rub",
        "ino"
      ],
      [
        "A",
        "t"
      ],
      [
        "G",
        "io"
      ],
      [
        "[",
        "..."
      ],
      [
        "a",
        "ri"
      ],
      [
        "a",
        "mbi"
      ],
      [
        "c",
        "chi"
      ],
      [
        "f",
        "un"
      ],
      [
        "g",
        "ono"
      ],
      [
        "t",
        "ò"
      ],
      [
        "di",
        "vi"
      ],
      [
        "ti",
        "vi"
      ],
      [
        "ca",
        "rica"
      ],
      [
        "ar",
        "si"
      ],
      [
        "ar",
        "ticolo"
      ],
      [
        "da",
        "ti"
      ],
      [
        "gi",
        "o"
      ],
      [
        "el",
        "li"
      ],
      [
        "tto",
        "rio"
      ],
      [
        "gli",
        "ere"
      ],
      [
        "is",
        "ce"
      ],
      [
        "sa",
        "rio"
      ],
      [
        "ssi",
        "one"
      ],
      [
        "ten",
        "ti"
      ],
      [
        "nuo",
        "va"
      ],
      [
        "fre",
        "di"
      ],
      [
        "uti",
        "li"
      ],
      [
        "propo",
        "sta"
      ],
      [
        "consid",
        "era"
      ],
      [
        "ulti",
        "mo"
      ],
      [
        "sempli",
        "ce"
      ],
      [
        "To",
        "bia"
      ],
      [
        "Vo",
        "IP"
      ],
      [
        "[...",
        "]"
      ],
      [
        "C",
        "or"
      ],
      [
        "S",
        "il"
      ],
      [
        "b",
        "re"
      ],
      [
        "s",
        "ca"
      ],
      [
        "s",
        "mo"
      ],
      [
        "v",
        "anni"
      ],
      [
        "z",
        "z"
      ],
      [
        "on",
        "isti"
      ],
      [
        "on",
        "ismo"
      ],
      [
        "di",
        "mo"
      ],
      [
        "ta",
        "l"
      ],
      [
        "ri",
        "guar"
      ],
      [
        "la",
        "zione"
      ],
      [
        "al",
        "tro"
      ],
      [
        "an",
        "n"
      ],
      [
        "an",
        "te"
      ],
      [
        "con",
        "tro"
      ],
      [
        "do",
        "ve"
      ],
      [
        "mo",
        "der"
      ],
      [
        "qu",
        "a"
      ],
      [
        "qu",
        "i"
      ],
      [
        "qu",
        "indi"
      ],
      [
        "tta",
        "mente"
      ],
      [
        "me",
        "si"
      ],
      [
        "me",
        "mb"
      ],
      [
        "dal",
        "le"
      ],
      [
        "gu",
        "i"
      ],
      [
        "uni",
        "ca"
      ],
      [
        "mb",
        "ia"
      ],
      [
        "202",
        "1"
      ],
      [
        "gra",
        "zi"
      ],
      [
        "gra",
        "fi"
      ],
      [
        "Co",
        "m"
      ],
      [
        "ino",
        "za"
      ],
      [
        "costitu",
        "zione"
      ],
      [
        "possi",
        "bile"
      ],
      [
        "poi",
        "ché"
      ],
      [
        "lumenaren",
        "si"
      ],
      [
        "soci",
        "ale"
      ],
      [
        "Sp",
        "inoza"
      ],
      [
        "fron",
        "ti"
      ],
      [
        "territo",
        "ri"
      ],
      [
        "gover",
        "ni"
      ],
      [
        "micronazional",
        "ismo"
      ],
      [
        "parteci",
        "pa"
      ],
      [
        "sar",
        "à"
      ],
      [
        "zze",
        "tta"
      ],
      [
        "dimissi",
        "oni"
      ],
      [
        "Gio",
        "vanni"
      ],
      [
        "D",
        "opo"
      ],
      [
        "E",
        "N"
      ],
      [
        "I",
        "V"
      ],
      [
        "L",
        "an"
      ],
      [
        "T",
        "esta"
      ],
      [
        "a",
        "go"
      ],
      [
        "c",
        "ro"
      ],
      [
        "f",
        "al"
      ],
      [
        "i",
        "mo"
      ],
      [
        "m",
        "er"
      ],
      [
        "s",
        "pi"
      ],
      [
        "u",
        "a"
      ],
      [
        "ti",
        "na"
      ],
      [
        "ta",
        "g"
      ],
      [
        "la",
        "bo"
      ],
      [
        "al",
        "tra"
      ],
      [
        "le",
        "tter"
      ],
      [
        "ra",
        "io"
      ],
      [
        "ra",
        "tter"
      ],
      [
        "po",
        "tere"
      ],
      [
        "ca",
        "so"
      ],
      [
        "ca",
        "ratter"
      ],
      [
        "es",
        "p"
      ],
      [
        "es",
        "to"
      ],
      [
        "qu",
        "anto"
      ],
      [
        "bb",
        "raio"
      ],
      [
        "me",
        "tte"
      ],
      [
        "pro",
        "tag"
      ],
      [
        "vo",
        "ta"
      ],
      [
        "ve",
        "ce"
      ],
      [
        "20",
        "1"
      ],
      [
        "ge",
        "tto"
      ],
      [
        "ini",
        "zio"
      ],
      [
        "senato",
        "re"
      ],
      [
        "bili",
        "tà"
      ],
      [
        "ideologi",
        "e"
      ],
      [
        "Minis",
        "tro"
      ],
      [
        "Da",
        "vide"
      ],
      [
        "liv",
        "ello"
      ],
      [
        "Lan",
        "fredi"
      ],
      [
        "ago",
        "sto"
      ],
      [
        "1",
        "2"
      ],
      [
        "A",
        "c"
      ],
      [
        "C",
        "ano"
      ],
      [
        "F",
        "u"
      ],
      [
        "P",
        "o"
      ],
      [
        "S",
        "to"
      ],
      [
        "T",
        "ra"
      ],
      [
        "a",
        "ver"
      ],
      [
        "e",
        "de"
      ],
      [
        "e",
        "vi"
      ],
      [
        "o",
        "ra"
      ],
      [
        "u",
        "ta"
      ],
      [
        "al",
        "lo"
      ],
      [
        "in",
        "forma"
      ],
      [
        "in",
        "vece"
      ],
      [
        "zi",
        "ale"
      ],
      [
        "ra",
        "re"
      ],
      [
        "ca",
        "rico"
      ],
      [
        "es",
        "se"
      ],
      [
        "mo",
        "zione"
      ],
      [
        "mo",
        "mento"
      ],
      [
        "so",
        "pra"
      ],
      [
        "ma",
        "ggior"
      ],
      [
        "da",
        "ta"
      ],
      [
        "da",
        "re"
      ],
      [
        "va",
        "ta"
      ],
      [
        "pro",
        "g"
      ],
      [
        "ter",
        "i"
      ],
      [
        "na",
        "zione"
      ],
      [
        "ques",
        "t"
      ],
      [
        "par",
        "la"
      ],
      [
        "av",
        "anti"
      ],
      [
        "mon",
        "di"
      ],
      [
        "cultur",
        "ali"
      ],
      [
        "Vi",
        "ce"
      ],
      [
        "missi",
        "one"
      ],
      [
        "istitu",
        "zioni"
      ],
      [
        "oper",
        "e"
      ],
      [
        "Mar",
        "tina"
      ],
      [
        "politi",
        "che"
      ],
      [
        "denti",
        "tà"
      ],
      [
        "prece",
        "dente"
      ],
      [
        "democra",
        "zia"
      ],
      [
        "modi",
        "fica"
      ],
      [
        "rappor",
        "ti"
      ],
      [
        "protag",
        "onisti"
      ],
      [
        "C",
        "A"
      ],
      [
        "G",
        "a"
      ],
      [
        "N",
        "el"
      ],
      [
        "P",
        "ar"
      ],
      [
        "T",
        "O"
      ],
      [
        "g",
        "ere"
      ],
      [
        "r",
        "à"
      ],
      [
        "r",
        "ale"
      ],
      [
        "u",
        "so"
      ],
      [
        "ti",
        "po"
      ],
      [
        "ri",
        "chi"
      ],
      [
        "ri",
        "forma"
      ],
      [
        "in",
        "f"
      ],
      [
        "ca",
        "po"
      ],
      [
        "ca",
        "mbia"
      ],
      [
        "es",
        "clusi"
      ],
      [
        "ci",
        "o"
      ],
      [
        "con",
        "tra"
      ],
      [
        "con",
        "fronti"
      ],
      [
        "ar",
        "ono"
      ],
      [
        "no",
        "ve"
      ],
      [
        "qu",
        "ali"
      ],
      [
        "pro",
        "getto"
      ],
      [
        "vo",
        "lu"
      ],
      [
        "pri",
        "nci"
      ],
      [
        "for",
        "me"
      ],
      [
        "man",
        "e"
      ],
      [
        "nuo",
        "ve"
      ],
      [
        "zza",
        "to"
      ],
      [
        "gior",
        "n"
      ],
      [
        "ini",
        "zi"
      ],
      [
        "comp",
        "ren"
      ],
      [
        "costitu",
        "zionale"
      ],
      [
        "svilu",
        "ppo"
      ],
      [
        "cri",
        "si"
      ],
      [
        "alc",
        "uni"
      ],
      [
        "defini",
        "zione"
      ],
      [
        "politi",
        "ci"
      ],
      [
        "nomin",
        "a"
      ],
      [
        "riu",
        "sc"
      ],
      [
        "virtu",
        "ale"
      ],
      [
        "rap",
        "presenta"
      ],
      [
        "Freelan",
        "d"
      ],
      [
        "apri",
        "le"
      ],
      [
        "conti",
        "n"
      ],
      [
        "grazi",
        "e"
      ],
      [
        "Cano",
        "vi"
      ],
      [
        "1",
        "3"
      ],
      [
        "2",
        "5"
      ],
      [
        "2",
        "6"
      ],
      [
        "2",
        "8"
      ],
      [
        "D",
        "O"
      ],
      [
        "G",
        "ia"
      ],
      [
        "S",
        "ta"
      ],
      [
        "U",
        "n"
      ],
      [
        "Z",
        "a"
      ],
      [
        "[",
        ".."
      ],
      [
        "a",
        "te"
      ],
      [
        "a",
        "gli"
      ],
      [
        "a",
        "sso"
      ],
      [
        "a",
        "vere"
      ],
      [
        "b",
        "ene"
      ],
      [
        "g",
        "n"
      ],
      [
        "i",
        "dentità"
      ],
      [
        "m",
        "esso"
      ],
      [
        "z",
        "zi"
      ],
      [
        "di",
        "o"
      ],
      [
        "to",
        "r"
      ],
      [
        "ri",
        "cor"
      ],
      [
        "ri",
        "spe"
      ],
      [
        "de",
        "tte"
      ],
      [
        "si",
        "cu"
      ],
      [
        "si",
        "oni"
      ],
      [
        "in",
        "attività"
      ],
      [
        "te",
        "sto"
      ],
      [
        "an",
        "ta"
      ],
      [
        "co",
        "mo"
      ],
      [
        "ra",
        "c"
      ],
      [
        "men",
        "ta"
      ],
      [
        "po",
        "sto"
      ],
      [
        "ca",
        "u"
      ],
      [
        "mi",
        "o"
      ],
      [
        "con",
        "ta"
      ],
      [
        "vi",
        "mento"
      ],
      [
        "sta",
        "ti"
      ],
      [
        "una",
        "micronazione"
      ],
      [
        "fi",
        "gu"
      ],
      [
        "sid",
        "enza"
      ],
      [
        "com",
        "pi"
      ],
      [
        "com",
        "unque"
      ],
      [
        "pa",
        "ra"
      ],
      [
        "bi",
        "etti"
      ],
      [
        "sto",
        "rico"
      ],
      [
        "nel",
        "le"
      ],
      [
        "por",
        "ta"
      ],
      [
        "nuo",
        "vamente"
      ],
      [
        "av",
        "uto"
      ],
      [
        "tan",
        "do"
      ],
      [
        "quel",
        "le"
      ],
      [
        "tur",
        "ale"
      ],
      [
        "cre",
        "scita"
      ],
      [
        "cono",
        "sc"
      ],
      [
        "II",
        "I"
      ],
      [
        "pen",
        "a"
      ],
      [
        "minis",
        "tri"
      ],
      [
        "fonda",
        "zione"
      ],
      [
        "mar",
        "zo"
      ],
      [
        "De",
        "mocra"
      ],
      [
        "sco",
        "po"
      ],
      [
        "ris",
        "mo"
      ],
      [
        "Gian",
        "mar"
      ],
      [
        "Arag",
        "onia"
      ],
      [
        "ami",
        "ci"
      ],
      [
        "lun",
        "go"
      ],
      [
        "freelan",
        "dismo"
      ],
      [
        "At",
        "lan"
      ],
      [
        "Sil",
        "onia"
      ],
      [
        "Ga",
        "zzetta"
      ],
      [
        "nove",
        "mbre"
      ],
      [
        "Gia",
        "como"
      ],
      [
        "Za",
        "fi"
      ],
      [
        "[..",
        "]"
      ],
      [
        "G",
        "ra"
      ],
      [
        "M",
        "EN"
      ],
      [
        "N",
        "onostante"
      ],
      [
        "O",
        "N"
      ],
      [
        "P",
        "O"
      ],
      [
        "P",
        "is"
      ],
      [
        "a",
        "ssi"
      ],
      [
        "a",
        "pia"
      ],
      [
        "b",
        "le"
      ],
      [
        "c",
        "enti"
      ],
      [
        "c",
        "ello"
      ],
      [
        "d",
        "en"
      ],
      [
        "e",
        "cono"
      ],
      [
        "f",
        "ar"
      ],
      [
        "g",
        "ine"
      ],
      [
        "m",
        "p"
      ],
      [
        "r",
        "si"
      ],
      [
        "s",
        "la"
      ],
      [
        "ti",
        "no"
      ],
      [
        "re",
        "la"
      ],
      [
        "re",
        "vo"
      ],
      [
        "ri",
        "fi"
      ],
      [
        "ri",
        "portato"
      ],
      [
        "de",
        "fin"
      ],
      [
        "al",
        "tri"
      ],
      [
        "si",
        "n"
      ],
      [
        "si",
        "eme"
      ],
      [
        "in",
        "tro"
      ],
      [
        "in",
        "sieme"
      ],
      [
        "le",
        "ggi"
      ],
      [
        "li",
        "mi"
      ],
      [
        "po",
        "si"
      ],
      [
        "po",
        "co"
      ],
      [
        "po",
        "sta"
      ],
      [
        "con",
        "si"
      ],
      [
        "con",
        "tri"
      ],
      [
        "so",
        "tto"
      ],
      [
        "me",
        "tter"
      ],
      [
        "el",
        "la"
      ],
      [
        "pro",
        "ble"
      ],
      [
        "vo",
        "ti"
      ],
      [
        "pri",
        "va"
      ],
      [
        "na",
        "io"
      ],
      [
        "ne",
        "o"
      ],
      [
        "fa",
        "se"
      ],
      [
        "20",
        "20"
      ],
      [
        "for",
        "te"
      ],
      [
        "ac",
        "co"
      ],
      [
        "gra",
        "m"
      ],
      [
        "dis",
        "corso"
      ],
      [
        "col",
        "labo"
      ],
      [
        "ini",
        "zia"
      ],
      [
        "minis",
        "tra"
      ],
      [
        "pers",
        "ona"
      ],
      [
        "pers",
        "one"
      ],
      [
        "at",
        "tu"
      ],
      [
        "classi",
        "co"
      ],
      [
        "Se",
        "con"
      ],
      [
        "Di",
        "re"
      ],
      [
        "Mar",
        "cello"
      ],
      [
        "........................",
        "...."
      ],
      [
        "fe",
        "bbraio"
      ],
      [
        "fondato",
        "re"
      ],
      [
        "importan",
        "te"
      ],
      [
        "gru",
        "ppo"
      ],
      [
        "sola",
        "mente"
      ],
      [
        "partico",
        "lare"
      ],
      [
        "Mo",
        "vimento"
      ],
      [
        "memb",
        "ri"
      ],
      [
        "prog",
        "etti"
      ],
      [
        "CA",
        "PO"
      ],
      [
        "riusc",
        "ì"
      ],
      [
        "Gianmar",
        "co"
      ],
      [
        "Gra",
        "zi"
      ],
      [
        "Pis",
        "apia"
      ],
      [
        "1",
        "8"
      ],
      [
        "2",
        "1"
      ],
      [
        "2",
        "2"
      ],
      [
        "F",
        "or"
      ],
      [
        "M",
        "ani"
      ],
      [
        "P",
        "a"
      ],
      [
        "S",
        "te"
      ],
      [
        "T",
        "er"
      ],
      [
        "a",
        "mb"
      ],
      [
        "c",
        "ano"
      ],
      [
        "f",
        "f"
      ],
      [
        "f",
        "ano"
      ],
      [
        "i",
        "b"
      ],
      [
        "k",
        "y"
      ],
      [
        "l",
        "in"
      ],
      [
        "n",
        "ess"
      ],
      [
        "o",
        "ssi"
      ],
      [
        "s",
        "ente"
      ],
      [
        "s",
        "ky"
      ],
      [
        "u",
        "tenti"
      ],
      [
        "ti",
        "ci"
      ],
      [
        "ri",
        "e"
      ],
      [
        "ri",
        "che"
      ],
      [
        "de",
        "ve"
      ],
      [
        "al",
        "o"
      ],
      [
        "si",
        "to"
      ],
      [
        "si",
        "mu"
      ],
      [
        "in",
        "carico"
      ],
      [
        "li",
        "a"
      ],
      [
        "ra",
        "zione"
      ],
      [
        "ra",
        "ggiun"
      ],
      [
        "ca",
        "re"
      ],
      [
        "se",
        "tte"
      ],
      [
        "con",
        "clu"
      ],
      [
        "ar",
        "ri"
      ],
      [
        "ar",
        "tico"
      ],
      [
        "mo",
        "grafi"
      ],
      [
        "or",
        "di"
      ],
      [
        "umen",
        "to"
      ],
      [
        "pi",
        "c"
      ],
      [
        "pro",
        "cesso"
      ],
      [
        "pu",
        "re"
      ],
      [
        "ali",
        "tà"
      ],
      [
        "pa",
        "ssa"
      ],
      [
        "pa",
        "ss"
      ],
      [
        "uni",
        "co"
      ],
      [
        "dia",
        "mo"
      ],
      [
        "ac",
        "ce"
      ],
      [
        "gra",
        "mma"
      ],
      [
        "por",
        "tare"
      ],
      [
        "ap",
        "pa"
      ],
      [
        "fon",
        "dire"
      ],
      [
        "av",
        "ven"
      ],
      [
        "zza",
        "re"
      ],
      [
        "zza",
        "zione"
      ],
      [
        "presen",
        "ti"
      ],
      [
        "col",
        "po"
      ],
      [
        "indi",
        "vi"
      ],
      [
        "abb",
        "iamo"
      ],
      [
        "ss",
        "ero"
      ],
      [
        "fonda",
        "men"
      ],
      [
        "der",
        "iva"
      ],
      [
        "mbi",
        "o"
      ],
      [
        "Vi",
        "ttorio"
      ],
      [
        "giu",
        "gno"
      ],
      [
        "................................................................",
        "................................"
      ],
      [
        "ideologi",
        "a"
      ],
      [
        "esperi",
        "enza"
      ],
      [
        "legi",
        "sla"
      ],
      [
        "risul",
        "ta"
      ],
      [
        "qua",
        "si"
      ],
      [
        "Com",
        "missione"
      ],
      [
        "Grazi",
        "sky"
      ],
      [
        "Ste",
        "fano"
      ],
      [
        "2",
        "3"
      ],
      [
        "O",
        "per"
      ],
      [
        "P",
        "A"
      ],
      [
        "P",
        "ia"
      ],
      [
        "S",
        "ci"
      ],
      [
        "T",
        "ele"
      ],
      [
        "U",
        "ni"
      ],
      [
        "b",
        "er"
      ],
      [
        "b",
        "an"
      ],
      [
        "d",
        "endo"
      ],
      [
        "e",
        "i"
      ],
      [
        "f",
        "li"
      ],
      [
        "i",
        "tà"
      ],
      [
        "n",
        "ero"
      ],
      [
        "o",
        "p"
      ],
      [
        "o",
        "ltre"
      ],
      [
        "p",
        "pi"
      ],
      [
        "s",
        "pa"
      ],
      [
        "s",
        "tro"
      ],
      [
        "t",
        "tutto"
      ],
      [
        "x",
        "e"
      ],
      [
        "z",
        "zo"
      ],
      [
        "en",
        "ze"
      ],
      [
        "di",
        "sti"
      ],
      [
        "di",
        "chia"
      ],
      [
        "er",
        "à"
      ],
      [
        "re",
        "pubbli"
      ],
      [
        "de",
        "di"
      ],
      [
        "de",
        "tto"
      ],
      [
        "te",
        "ca"
      ],
      [
        "an",
        "a"
      ],
      [
        "le",
        "t"
      ],
      [
        "ra",
        "ti"
      ],
      [
        "un",
        "t"
      ],
      [
        "men",
        "tre"
      ],
      [
        "es",
        "sione"
      ],
      [
        "no",
        "stra"
      ],
      [
        "qu",
        "into"
      ],
      [
        "so",
        "l"
      ],
      [
        "so",
        "v"
      ],
      [
        "so",
        "li"
      ],
      [
        "vi",
        "sta"
      ],
      [
        "or",
        "tino"
      ],
      [
        "tta",
        "to"
      ],
      [
        "su",
        "e"
      ],
      [
        "pro",
        "duzione"
      ],
      [
        "pu",
        "r"
      ],
      [
        "ter",
        "o"
      ],
      [
        "onen",
        "ti"
      ],
      [
        "fi",
        "ci"
      ],
      [
        "Re",
        "gno"
      ],
      [
        "com",
        "une"
      ],
      [
        "ques",
        "te"
      ],
      [
        "fa",
        "c"
      ],
      [
        "nel",
        "l"
      ],
      [
        "for",
        "um"
      ],
      [
        "ran",
        "te"
      ],
      [
        "lu",
        "glio"
      ],
      [
        "micronazioni",
        "leonensi"
      ],
      [
        "mb",
        "le"
      ],
      [
        "man",
        "i"
      ],
      [
        "nuo",
        "vi"
      ],
      [
        "ap",
        "pena"
      ],
      [
        "ul",
        "la"
      ],
      [
        "cre",
        "azione"
      ],
      [
        "Ca",
        "po"
      ],
      [
        "fica",
        "re"
      ],
      [
        "Ques",
        "ta"
      ],
      [
        "ide",
        "a"
      ],
      [
        "can",
        "ale"
      ],
      [
        "stata",
        "le"
      ],
      [
        "suc",
        "cesso"
      ],
      [
        "classi",
        "ca"
      ],
      [
        "oper",
        "azione"
      ],
      [
        "gen",
        "naio"
      ],
      [
        "conce",
        "tto"
      ],
      [
        "territo",
        "rio"
      ],
      [
        "Arag",
        "onismo"
      ],
      [
        "So",
        "zzi"
      ],
      [
        "Ci",
        "ua"
      ],
      [
        "Lu",
        "xe"
      ],
      [
        "candi",
        "dati"
      ],
      [
        "Cul",
        "tura"
      ],
      [
        "neces",
        "sario"
      ],
      [
        "differ",
        "enza"
      ],
      [
        "riguar",
        "do"
      ],
      [
        "fal",
        "li"
      ],
      [
        "sopra",
        "ttutto"
      ],
      [
        "princi",
        "p"
      ],
      [
        "figu",
        "ra"
      ],
      [
        "Zafi",
        "ria"
      ],
      [
        "acco",
        "unt"
      ],
      [
        "Secon",
        "da"
      ],
      [
        "ossi",
        "a"
      ],
      [
        "indivi",
        "du"
      ],
      [
        "Pia",
        "zza"
      ],
      [
        "Sci",
        "ortino"
      ],
      [
        "E",
        "le"
      ],
      [
        "F",
        "on"
      ],
      [
        "U",
        "MEN"
      ],
      [
        "a",
        "ti"
      ],
      [
        "a",
        "ta"
      ],
      [
        "a",
        "ven"
      ],
      [
        "a",
        "rismo"
      ],
      [
        "c",
        "ò"
      ],
      [
        "d",
        "ono"
      ],
      [
        "e",
        "c"
      ],
      [
        "e",
        "x"
      ],
      [
        "g",
        "ge"
      ],
      [
        "m",
        "ano"
      ],
      [
        "m",
        "ese"
      ],
      [
        "n",
        "onostante"
      ],
      [
        "o",
        "re"
      ],
      [
        "p",
        "pia"
      ],
      [
        "r",
        "ò"
      ],
      [
        "s",
        "é"
      ],
      [
        "s",
        "sono"
      ],
      [
        "v",
        "ò"
      ],
      [
        "ti",
        "che"
      ],
      [
        "ri",
        "n"
      ],
      [
        "la",
        "r"
      ],
      [
        "la",
        "vo"
      ],
      [
        "de",
        "tta"
      ],
      [
        "in",
        "cen"
      ],
      [
        "in",
        "elli"
      ],
      [
        "te",
        "ma"
      ],
      [
        "an",
        "ali"
      ],
      [
        "le",
        "v"
      ],
      [
        "po",
        "ssono"
      ],
      [
        "ci",
        "ta"
      ],
      [
        "ci",
        "tà"
      ],
      [
        "................",
        "...."
      ],
      [
        "mi",
        "tà"
      ],
      [
        "ar",
        "go"
      ],
      [
        "so",
        "sp"
      ],
      [
        "vi",
        "zi"
      ],
      [
        "pro",
        "gramma"
      ],
      [
        "Lumen",
        "ari"
      ],
      [
        "tto",
        "ri"
      ],
      [
        "gli",
        "a"
      ],
      [
        "pre",
        "sente"
      ],
      [
        "sa",
        "ggio"
      ],
      [
        "ere",
        "mo"
      ],
      [
        "na",
        "re"
      ],
      [
        "par",
        "tito"
      ],
      [
        "Pre",
        "sidenza"
      ],
      [
        "ran",
        "no"
      ],
      [
        "ele",
        "zione"
      ],
      [
        "Qu",
        "into"
      ],
      [
        "vol",
        "on"
      ],
      [
        "inter",
        "essi"
      ],
      [
        "indi",
        "pen"
      ],
      [
        "deci",
        "so"
      ],
      [
        "at",
        "ten"
      ],
      [
        "suc",
        "ce"
      ],
      [
        "appro",
        "fondire"
      ],
      [
        "De",
        "fini"
      ],
      [
        "lio",
        "teca"
      ],
      [
        "gran",
        "di"
      ],
      [
        "car",
        "lo"
      ],
      [
        "Sp",
        "inelli"
      ],
      [
        "Gian",
        "carlo"
      ],
      [
        "uffici",
        "ale"
      ],
      [
        "vari",
        "e"
      ],
      [
        "riu",
        "sci"
      ],
      [
        "ina",
        "ugu"
      ],
      [
        "gesti",
        "one"
      ],
      [
        "person",
        "ali"
      ],
      [
        "scel",
        "ta"
      ],
      [
        "discu",
        "ssione"
      ],
      [
        "inse",
        "di"
      ],
      [
        "popo",
        "lo"
      ],
      [
        "ann",
        "essione"
      ],
      [
        "caratter",
        "i"
      ],
      [
        "vota",
        "zioni"
      ],
      [
        "Vice",
        "presidente"
      ],
      [
        "inf",
        "lu"
      ],
      [
        "cau",
        "sa"
      ],
      [
        "contri",
        "bu"
      ],
      [
        "sette",
        "mbre"
      ],
      [
        "Tele",
        "gram"
      ],
      [
        "disti",
        "n"
      ],
      [
        "sov",
        "ran"
      ],
      [
        "Quinto",
        "mondo"
      ],
      [
        "1",
        "5"
      ],
      [
        "1",
        "9"
      ],
      [
        "2",
        "7"
      ],
      [
        "3",
        "0"
      ],
      [
        "C",
        "UMEN"
      ],
      [
        "D",
        "I"
      ],
      [
        "D",
        "PA"
      ],
      [
        "I",
        "T"
      ],
      [
        "I",
        "stitu"
      ],
      [
        "I",
        "ber"
      ],
      [
        "O",
        "ltre"
      ],
      [
        "P",
        "as"
      ],
      [
        "S",
        "ono"
      ],
      [
        "a",
        "mente"
      ],
      [
        "a",
        "mpi"
      ],
      [
        "d",
        "ando"
      ],
      [
        "e",
        "gli"
      ],
      [
        "e",
        "man"
      ],
      [
        "e",
        "mer"
      ],
      [
        "g",
        "ar"
      ],
      [
        "g",
        "are"
      ],
      [
        "m",
        "al"
      ],
      [
        "o",
        "bietti"
      ],
      [
        "s",
        "per"
      ],
      [
        "s",
        "ten"
      ],
      [
        "s",
        "tre"
      ],
      [
        "v",
        "in"
      ],
      [
        "di",
        "Leonia"
      ],
      [
        "re",
        "gi"
      ],
      [
        "re",
        "go"
      ],
      [
        "ri",
        "ce"
      ],
      [
        "ri",
        "ten"
      ],
      [
        "ri",
        "fer"
      ],
      [
        "la",
        "sci"
      ],
      [
        "de",
        "va"
      ],
      [
        "si",
        "mi"
      ],
      [
        "ra",
        "mente"
      ],
      [
        "zion",
        "ali"
      ],
      [
        "ca",
        "ta"
      ],
      [
        "es",
        "sen"
      ],
      [
        "se",
        "tti"
      ],
      [
        "mi",
        "se"
      ],
      [
        "ro",
        "cra"
      ],
      [
        "con",
        "segu"
      ],
      [
        "con",
        "fli"
      ],
      [
        "mo",
        "tivo"
      ],
      [
        "qu",
        "as"
      ],
      [
        "so",
        "r"
      ],
      [
        "vi",
        "o"
      ],
      [
        "ma",
        "to"
      ],
      [
        "sta",
        "te"
      ],
      [
        "non",
        "ché"
      ],
      [
        "Repubbli",
        "c"
      ],
      [
        "sen",
        "so"
      ],
      [
        "na",
        "zionale"
      ],
      [
        "fa",
        "vo"
      ],
      [
        "ac",
        "cu"
      ],
      [
        "tr",
        "u"
      ],
      [
        "sia",
        "si"
      ],
      [
        "cre",
        "are"
      ],
      [
        "forma",
        "zione"
      ],
      [
        "In",
        "fatti"
      ],
      [
        "sse",
        "mble"
      ],
      [
        "Ques",
        "ti"
      ],
      [
        "ide",
        "e"
      ],
      [
        "ffici",
        "ente"
      ],
      [
        "rico",
        "perto"
      ],
      [
        "An",
        "che"
      ],
      [
        "fonda",
        "ta"
      ],
      [
        "at",
        "tra"
      ],
      [
        "dire",
        "ttamente"
      ],
      [
        "istitu",
        "zionale"
      ],
      [
        "bu",
        "rocra"
      ],
      [
        "ruo",
        "li"
      ],
      [
        "diver",
        "se"
      ],
      [
        "Minis",
        "tri"
      ],
      [
        "oc",
        "cu"
      ],
      [
        "ricono",
        "sc"
      ],
      [
        "ricono",
        "sce"
      ],
      [
        "ba",
        "sa"
      ],
      [
        "qual",
        "siasi"
      ],
      [
        "otten",
        "ere"
      ],
      [
        "lib",
        "er"
      ],
      [
        "Cul",
        "turale"
      ],
      [
        "arcadi",
        "ano"
      ],
      [
        "arcadi",
        "ani"
      ],
      [
        "am",
        "ministra"
      ],
      [
        "dice",
        "mbre"
      ],
      [
        "successi",
        "vamente"
      ],
      [
        "fun",
        "zion"
      ],
      [
        "dimo",
        "stra"
      ],
      [
        "tal",
        "mente"
      ],
      [
        "esp",
        "onenti"
      ],
      [
        "Ac",
        "quas"
      ],
      [
        "Sto",
        "ria"
      ],
      [
        "allo",
        "ra"
      ],
      [
        "mondi",
        "sta"
      ],
      [
        "Par",
        "tito"
      ],
      [
        "esclusi",
        "vamente"
      ],
      [
        "volu",
        "zione"
      ],
      [
        "contin",
        "u"
      ],
      [
        "DO",
        "CUMEN"
      ],
      [
        "identità",
        "leonense"
      ],
      [
        "rispe",
        "tto"
      ],
      [
        "metter",
        "e"
      ],
      [
        "Mani",
        "ero"
      ],
      [
        "Lumenari",
        "sta"
      ],
      [
        "Iber",
        "ia"
      ],
      [
        "ssemble",
        "a"
      ],
      [
        "Acquas",
        "anta"
      ],
      [
        "DOCUMEN",
        "TO"
      ],
      [
        "1",
        "6"
      ],
      [
        "5",
        "0"
      ],
      [
        "A",
        "ssemblea"
      ],
      [
        "C",
        "er"
      ],
      [
        "C",
        "io"
      ],
      [
        "I",
        "e"
      ],
      [
        "I",
        "tali"
      ],
      [
        "O",
        "mar"
      ],
      [
        "R",
        "amb"
      ],
      [
        "U",
        "na"
      ],
      [
        "Y",
        "u"
      ],
      [
        "a",
        "da"
      ],
      [
        "a",
        "gi"
      ],
      [
        "a",
        "ffi"
      ],
      [
        "a",
        "ss"
      ],
      [
        "a",
        "rag"
      ],
      [
        "a",
        "ggiun"
      ],
      [
        "c",
        "in"
      ],
      [
        "c",
        "ando"
      ],
      [
        "f",
        "eno"
      ],
      [
        "i",
        "ta"
      ],
      [
        "l",
        "on"
      ],
      [
        "l",
        "en"
      ],
      [
        "l",
        "ine"
      ],
      [
        "n",
        "ere"
      ],
      [
        "o",
        "tto"
      ],
      [
        "o",
        "stra"
      ],
      [
        "p",
        "r"
      ],
      [
        "s",
        "al"
      ],
      [
        "s",
        "tudi"
      ],
      [
        "u",
        "te"
      ],
      [
        "y",
        "nere"
      ],
      [
        "di",
        "zione"
      ],
      [
        "ta",
        "ta"
      ],
      [
        "ri",
        "ti"
      ],
      [
        "ri",
        "mane"
      ],
      [
        "ri",
        "lev"
      ],
      [
        "de",
        "c"
      ],
      [
        "de",
        "sso"
      ],
      [
        "al",
        "di"
      ],
      [
        "co",
        "in"
      ],
      [
        "po",
        "chi"
      ],
      [
        "ca",
        "riche"
      ],
      [
        "es",
        "o"
      ],
      [
        "ci",
        "ato"
      ],
      [
        "il",
        "o"
      ],
      [
        "se",
        "pp"
      ],
      [
        "mi",
        "te"
      ],
      [
        "con",
        "divi"
      ],
      [
        "tu",
        "tta"
      ],
      [
        "so",
        "sten"
      ],
      [
        "me",
        "glio"
      ],
      [
        "pro",
        "fonda"
      ],
      [
        "pu",
        "l"
      ],
      [
        "ter",
        "no"
      ],
      [
        "pre",
        "se"
      ],
      [
        "pre",
        "so"
      ],
      [
        "pre",
        "sso"
      ],
      [
        "tra",
        "mite"
      ],
      [
        "sa",
        "ggi"
      ],
      [
        "sa",
        "rebbe"
      ],
      [
        "ssi",
        "mo"
      ],
      [
        "ssi",
        "oni"
      ],
      [
        "com",
        "pro"
      ],
      [
        "com",
        "pa"
      ],
      [
        "du",
        "ta"
      ],
      [
        "du",
        "rante"
      ],
      [
        "ten",
        "sioni"
      ],
      [
        "ven",
        "di"
      ],
      [
        "ven",
        "gono"
      ],
      [
        "ven",
        "nero"
      ],
      [
        "min",
        "i"
      ],
      [
        "min",
        "imo"
      ],
      [
        "fu",
        "tu"
      ],
      [
        "ran",
        "do"
      ],
      [
        "man",
        "a"
      ],
      [
        "dis",
        "tru"
      ],
      [
        "Co",
        "l"
      ],
      [
        "cor",
        "r"
      ],
      [
        "tan",
        "ti"
      ],
      [
        "inter",
        "essa"
      ],
      [
        "sp",
        "etti"
      ],
      [
        "col",
        "leg"
      ],
      [
        "str",
        "u"
      ],
      [
        "str",
        "umento"
      ],
      [
        "gni",
        "fica"
      ],
      [
        "dire",
        "tta"
      ],
      [
        "mol",
        "ti"
      ],
      [
        "Mi",
        "crona"
      ],
      [
        "possi",
        "amo"
      ],
      [
        "possi",
        "bilità"
      ],
      [
        "svilu",
        "pp"
      ],
      [
        "fr",
        "u"
      ],
      [
        "Giu",
        "sepp"
      ],
      [
        "pia",
        "tta"
      ],
      [
        "diri",
        "tti"
      ],
      [
        "oper",
        "a"
      ],
      [
        "even",
        "ti"
      ],
      [
        "consid",
        "er"
[...]
